{
  "version": "1.0",
  "truncation": {
    "direction": "Right",
    "max_length": 64,
    "strategy": "LongestFirst",
    "stride": 0
  },
  "padding": {
    "strategy": {
      "Fixed": 64
    },
    "direction": "Right",
    "pad_to_multiple_of": null,
    "pad_id": 0,
    "pad_type_id": 0,
    "pad_token": "[PAD]"
  },
  "added_tokens": [
    {
      "id": 0,
      "content": "[PAD]",
      "single_word": false,
      "lstrip": false,
      "rstrip": false,
      "normalized": false,
      "special": true
    },
    {
      "id": 1,
      "content": "[UNK]",
      "single_word": false,
      "lstrip": false,
      "rstrip": false,
      "normalized": false,
      "special": true
    },
    {
      "id": 2,
      "content": "[CLS]",
      "single_word": false,
      "lstrip": false,
      "rstrip": false,
      "normalized": false,
      "special": true
    },
    {
      "id": 3,
      "content": "[SEP]",
      "single_word": false,
      "lstrip": false,
      "rstrip": false,
      "normalized": false,
      "special": true
    },
    {
      "id": 4,
      "content": "[MASK]",
      "single_word": false,
      "lstrip": false,
      "rstrip": false,
      "normalized": false,
      "special": true
    }
  ],
  "normalizer": null,
  "pre_tokenizer": {
    "type": "ByteLevel",
    "add_prefix_space": true,
    "trim_offsets": true,
    "use_regex": true
  },
  "post_processor": {
    "type": "TemplateProcessing",
    "single": [
      {
        "SpecialToken": {
          "id": "[CLS]",
          "type_id": 0
        }
      },
      {
        "Sequence": {
          "id": "A",
          "type_id": 0
        }
      },
      {
        "SpecialToken": {
          "id": "[SEP]",
          "type_id": 0
        }
      }
    ],
    "pair": [
      {
        "SpecialToken": {
          "id": "[CLS]",
          "type_id": 0
        }
      },
      {
        "Sequence": {
          "id": "A",
          "type_id": 0
        }
      },
      {
        "SpecialToken": {
          "id": "[SEP]",
          "type_id": 0
        }
      },
      {
        "Sequence": {
          "id": "B",
          "type_id": 0
        }
      },
      {
        "SpecialToken": {
          "id": "[SEP]",
          "type_id": 0
        }
      }
    ],
    "special_tokens": {
      "[CLS]": {
        "id": "[CLS]",
        "ids": [
          2
        ],
        "tokens": [
          "[CLS]"
        ]
      },
      "[SEP]": {
        "id": "[SEP]",
        "ids": [
          3
        ],
        "tokens": [
          "[SEP]"
        ]
      }
    }
  },
  "decoder": {
    "type": "ByteLevel",
    "add_prefix_space": true,
    "trim_offsets": true,
    "use_regex": true
  },
  "model": {
    "type": "BPE",
    "dropout": null,
    "unk_token": "[UNK]",
    "continuing_subword_prefix": null,
    "end_of_word_suffix": null,
    "fuse_unk": false,
    "byte_fallback": false,
    "ignore_merges": false,
    "vocab": {
      "[PAD]": 0,
      "[UNK]": 1,
      "[CLS]": 2,
      "[SEP]": 3,
      "[MASK]": 4,
      "'": 5,
      ",": 6,
      "-": 7,
      ".": 8,
      "A": 9,
      "B": 10,
      "C": 11,
      "D": 12,
      "E": 13,
      "F": 14,
      "H": 15,
      "I": 16,
      "J": 17,
      "K": 18,
      "L": 19,
      "M": 20,
      "N": 21,
      "O": 22,
      "P": 23,
      "Q": 24,
      "R": 25,
      "S": 26,
      "T": 27,
      "V": 28,
      "W": 29,
      "X": 30,
      "Y": 31,
      "a": 32,
      "b": 33,
      "c": 34,
      "d": 35,
      "e": 36,
      "f": 37,
      "g": 38,
      "h": 39,
      "i": 40,
      "j": 41,
      "k": 42,
      "l": 43,
      "m": 44,
      "n": 45,
      "o": 46,
      "p": 47,
      "q": 48,
      "r": 49,
      "s": 50,
      "t": 51,
      "u": 52,
      "v": 53,
      "w": 54,
      "x": 55,
      "y": 56,
      "z": 57,
      "¡": 58,
      "¢": 59,
      "£": 60,
      "¤": 61,
      "¥": 62,
      "¦": 63,
      "§": 64,
      "¨": 65,
      "©": 66,
      "ª": 67,
      "«": 68,
      "¬": 69,
      "®": 70,
      "¯": 71,
      "°": 72,
      "±": 73,
      "²": 74,
      "³": 75,
      "´": 76,
      "µ": 77,
      "¶": 78,
      "·": 79,
      "¸": 80,
      "¹": 81,
      "º": 82,
      "»": 83,
      "¼": 84,
      "½": 85,
      "¾": 86,
      "¿": 87,
      "Ã": 88,
      "Ä": 89,
      "Å": 90,
      "Æ": 91,
      "á": 92,
      "ã": 93,
      "ä": 94,
      "å": 95,
      "æ": 96,
      "ç": 97,
      "è": 98,
      "é": 99,
      "Ċ": 100,
      "Ġ": 101,
      "Ģ": 102,
      "ģ": 103,
      "Ĥ": 104,
      "ĥ": 105,
      "Ħ": 106,
      "ħ": 107,
      "Ĩ": 108,
      "ĩ": 109,
      "Ī": 110,
      "ī": 111,
      "Ĭ": 112,
      "ĭ": 113,
      "Į": 114,
      "į": 115,
      "İ": 116,
      "ı": 117,
      "Ĳ": 118,
      "ĳ": 119,
      "Ĵ": 120,
      "ĵ": 121,
      "Ķ": 122,
      "ķ": 123,
      "ĸ": 124,
      "Ĺ": 125,
      "ĺ": 126,
      "Ļ": 127,
      "ļ": 128,
      "Ľ": 129,
      "ľ": 130,
      "Ŀ": 131,
      "ŀ": 132,
      "Ł": 133,
      "ł": 134,
      "Ń": 135,
      "ãģ": 136,
      "Ġt": 137,
      "he": 138,
      "ĠI": 139,
      "Ġs": 140,
      "ãĢ": 141,
      "á»": 142,
      "áº": 143,
      "ãĤ": 144,
      "ng": 145,
      "Ġm": 146,
      "hÃ": 147,
      "Ġa": 148,
      "re": 149,
      "Ġc": 150,
      "ãĢĤ": 151,
      "Ġd": 152,
      "Ġl": 153,
      "ĠthÃ": 154,
      "ĠthÃ¬": 155,
      "ãĢģ": 156,
      "ĠIf": 157,
      "Ã´": 158,
      "¾ãģ": 159,
      "Ġf": 160,
      "Ġg": 161,
      "is": 162,
      "Ġb": 163,
      "ãģ¾ãģ": 164,
      "ãģ¯": 165,
      "ãģ¾ãģĻ": 166,
      "Ġw": 167,
      "Ġh": 168,
      "at": 169,
      "ĠW": 170,
      "áº¥": 171,
      "Ġhe": 172,
      "'m": 173,
      "Ġáº¥": 174,
      "½¼": 175,
      "å½¼": 176,
      "Ġn": 177,
      "Ġe": 178,
      "Ġáº¥y": 179,
      "le": 180,
      "Ġi": 181,
      "Ġshe": 182,
      "hen": 183,
      "ĠWhen": 184,
      "Ġj": 185,
      "ĠÄ": 186,
      "or": 187,
      "nh": 188,
      "er": 189,
      "nd": 190,
      "ing": 191,
      "Ġto": 192,
      "Ġp": 193,
      "ay": 194,
      "Ãł": 195,
      "me": 196,
      "Ġthe": 197,
      "on": 198,
      "ãĤī": 199,
      "Įãģ": 200,
      "Ġre": 201,
      "Ġv": 202,
      "ou": 203,
      "ĠÄĳ": 204,
      "ai": 205,
      "Ġje": 206,
      "hi": 207,
      "ĠS": 208,
      "ãĥ": 209,
      "st": 210,
      "ĠN": 211,
      "ãģĦ": 212,
      "áº¿": 213,
      "Ġgo": 214,
      "Ã´i": 215,
      "Ã©": 216,
      "ãģĹ": 217,
      "Ġst": 218,
      "av": 219,
      "Ġde": 220,
      "lle": 221,
      "ãĤĴ": 222,
      "áº¿u": 223,
      "ĠNáº¿u": 224,
      "nt": 225,
      "Ġho": 226,
      "ch": 227,
      "ĠtÃ´i": 228,
      "ee": 229,
      "¥³": 230,
      "å¥³": 231,
      "å½¼å¥³": 232,
      "å½¼å¥³ãģ¯": 233,
      "å½¼ãģ¯": 234,
      "oo": 235,
      "ua": 236,
      "Ġtr": 237,
      "ĠcÃ´": 238,
      "Khi": 239,
      "ĠKhi": 240,
      "ĠT": 241,
      "al": 242,
      "ar": 243,
      "ie": 244,
      "Ġanh": 245,
      "it": 246,
      "Ġá»": 247,
      "ic": 248,
      "in": 249,
      "Ġit": 250,
      "Ġu": 251,
      "ãģ«": 252,
      "ãģĹãģ¾ãģĻ": 253,
      "ãģª": 254,
      "Ġng": 255,
      "ãĤĮãģ": 256,
      "ave": 257,
      "iá»": 258,
      "Ġæ": 259,
      "Ġá»Ł": 260,
      "Ġma": 261,
      "Ġle": 262,
      "ãģŁ": 263,
      "Ġat": 264,
      "é£": 265,
      "Ġwor": 266,
      "ĠÃł": 267,
      "Ġeat": 268,
      "ĠSi": 269,
      "Ġo": 270,
      "Ġil": 271,
      "ãĤĮãģ°": 272,
      "'s": 273,
      "ĠA": 274,
      "Ġwork": 275,
      "ow": 276,
      "ĠH": 277,
      "Ġbu": 278,
      "Ġr": 279,
      "Ġsu": 280,
      "Ġhome": 281,
      "ãģªãĤī": 282,
      "de": 283,
      "ur": 284,
      "Ġstay": 285,
      "ĥn": 286,
      "se": 287,
      "áº¡": 288,
      "ke": 289,
      "Æ°": 290,
      "ff": 291,
      "æĹ": 292,
      "Ġelle": 293,
      "Ġå": 294,
      "nds": 295,
      "ĠÄĳi": 296,
      "Ġrest": 297,
      "Ġme": 298,
      "ä¼": 299,
      "Ġsuis": 300,
      "Ġfa": 301,
      "á»ĳ": 302,
      "Ġhave": 303,
      "out": 304,
      "há»": 305,
      "Ġla": 306,
      "ãģŁãĤī": 307,
      "Qua": 308,
      "ĠQua": 309,
      "ĠQuand": 310,
      "ly": 311,
      "Ã³": 312,
      "hÃł": 313,
      "å®": 314,
      "day": 315,
      "la": 316,
      "ĠÄĥn": 317,
      "Ġco": 318,
      "é£Ł": 319,
      "au": 320,
      "Ġfr": 321,
      "one": 322,
      "Ġmy": 323,
      "á»į": 324,
      "iá»ĩ": 325,
      "ãģ§": 326,
      "ãģ¿": 327,
      "ãĤĴè": 328,
      "æĹ¥": 329,
      "Ġout": 330,
      "et": 331,
      "Ġwat": 332,
      "Ġä": 333,
      "Ġviá»ĩ": 334,
      "ãģĳ": 335,
      "en": 336,
      "Ġin": 337,
      "em": 338,
      "ĠnhÃł": 339,
      "ide": 340,
      "á»Ŀ": 341,
      "ĠlÃł": 342,
      "ad": 343,
      "Ġoff": 344,
      "ant": 345,
      "áºŃ": 346,
      "Ġwatch": 347,
      "ãĤĭ": 348,
      "å®¶": 349,
      "ãģ£": 350,
      "ãģĮ": 351,
      "ĠlÃłm": 352,
      "ãģı": 353,
      "Ġta": 354,
      "ain": 355,
      "Ġk": 356,
      "äº": 357,
      "ãģ¿ãģ¾ãģĻ": 358,
      "Ġfrie": 359,
      "ãģĳãĤĮãģ°": 360,
      "Ġé": 361,
      "ĠL": 362,
      "hÃ´": 363,
      "Ġbá»": 364,
      "ood": 365,
      "pp": 366,
      "her": 367,
      "Ġti": 368,
      "¡Įãģ": 369,
      "è¡Įãģ": 370,
      "Ġfriends": 371,
      "Ġsh": 372,
      "ãģĮãģ": 373,
      "ĠIl": 374,
      "On": 375,
      "ĠOn": 376,
      "Ġmu": 377,
      "ac": 378,
      "ãģ¹": 379,
      "é£Łãģ¹": 380,
      "ice": 381,
      "ĠD": 382,
      "Ġwe": 383,
      "ä¼ļ": 384,
      "Ġso": 385,
      "Ġviá»ĩc": 386,
      "qu": 387,
      "Ġch": 388,
      "ore": 389,
      "un": 390,
      "ĠJ": 391,
      "il": 392,
      "pit": 393,
      "pital": 394,
      "Ġfood": 395,
      "ãģĦãģ¾ãģĻ": 396,
      "as": 397,
      "Ġun": 398,
      "ter": 399,
      "Ġon": 400,
      "įãģ¾ãģĻ": 401,
      "Ġex": 402,
      "Ã¡": 403,
      "áº·": 404,
      "ĠHe": 405,
      "Ġx": 406,
      "Ġmang": 407,
      "ĠShe": 408,
      "ĠE": 409,
      "uring": 410,
      "ĠDuring": 411,
      "Ġmee": 412,
      "our": 413,
      "avai": 414,
      "Ġtravai": 415,
      "Ġmeet": 416,
      "hey": 417,
      "ĠThey": 418,
      "ate": 419,
      "ãĥ¼": 420,
      "Ġmua": 421,
      "éģ": 422,
      "Ġsch": 423,
      "ool": 424,
      "Ġschool": 425,
      "Ġbuy": 426,
      "Ġdes": 427,
      "est": 428,
      "Ġdu": 429,
      "an": 430,
      "Ġdr": 431,
      "á»Ŀi": 432,
      "Ġtake": 433,
      "Ã©c": 434,
      "fter": 435,
      "Ġno": 436,
      "ĠAfter": 437,
      "Ġreste": 438,
      "te": 439,
      "Ġau": 440,
      "Ġis": 441,
      "²·": 442,
      "ĠÄĳá»": 443,
      "Ġth": 444,
      "á»Ľ": 445,
      "ĻĤ": 446,
      "ise": 447,
      "ãģ£ãģŁãĤī": 448,
      "Ġrela": 449,
      "Ġrelax": 450,
      "há»ī": 451,
      "Æ¡": 452,
      "ĠcÃ³": 453,
      "ame": 454,
      "Ġä»": 455,
      "Ġç": 456,
      "rea": 457,
      "Ġoffice": 458,
      "Ã¬": 459,
      "mi": 460,
      "ook": 461,
      "alk": 462,
      "side": 463,
      "ĠJe": 464,
      "Ġmo": 465,
      "ĠphÃ": 466,
      "Ġnghá»ī": 467,
      "Ġgi": 468,
      "row": 469,
      "Ã¨": 470,
      "cise": 471,
      "ercise": 472,
      "ä¼ĳ": 473,
      "Ġfais": 474,
      "Ġexercise": 475,
      "ep": 476,
      "li": 477,
      "ĠIn": 478,
      "Ġrain": 479,
      "Ġtime": 480,
      "Æ¡i": 481,
      "Ġfee": 482,
      "Ġfeel": 483,
      "ink": 484,
      "Ġfami": 485,
      "Ġdrink": 486,
      "á»įc": 487,
      "ro": 488,
      "ºc": 489,
      "ison": 490,
      "Ġmaison": 491,
      "¦ĭ": 492,
      "ãģĨ": 493,
      "ãĤĴè¦ĭ": 494,
      "ãģĦãĤĭ": 495,
      "ĠkhÃ´": 496,
      "ĠkhÃ´ng": 497,
      "ĠC": 498,
      "ather": 499,
      "Ġxem": 500,
      "ãģ«è¡Įãģ": 501,
      "é£²": 502,
      "Ãºc": 503,
      "Ġgáº·": 504,
      "Ġtravaille": 505,
      "Ġgáº·p": 506,
      "Ġy": 507,
      "Ġnot": 508,
      "Ġread": 509,
      "Ã¬nh": 510,
      "eu": 511,
      "å®¶ãģ«": 512,
      "reak": 513,
      "å½¼å¥³ãģ¯å": 514,
      "Æ°a": 515,
      "opp": 516,
      "Ġshopp": 517,
      "Ġshopping": 518,
      "ãģ¨": 519,
      "Ġday": 520,
      "Ġweather": 521,
      "erday": 522,
      "esterday": 523,
      "res": 524,
      "Ġget": 525,
      "Ġgame": 526,
      "Ġæĺ": 527,
      "Ġyesterday": 528,
      "es": 529,
      "ld": 530,
      "æĻĤ": 531,
      "Ġthá»": 532,
      "å½¼ãģ¯å": 533,
      "spital": 534,
      "Ġhospital": 535,
      "mor": 536,
      "morrow": 537,
      "ois": 538,
      "ãĤ¹": 539,
      "Ġuá»ĳ": 540,
      "Ġuá»ĳng": 541,
      "Ń¦": 542,
      "Ġnh": 543,
      "Ġtomorrow": 544,
      "Ġmus": 545,
      "ä¸": 546,
      "ãģ¦": 547,
      "æľ": 548,
      "Ã´m": 549,
      "ĠTÃ´i": 550,
      "ĠHÃ´m": 551,
      "ning": 552,
      "Ġstore": 553,
      "Ġbreak": 554,
      "Ġpl": 555,
      "ĠTV": 556,
      "áº¡n": 557,
      "Ġsome": 558,
      "Ġsle": 559,
      "ĠCÃ´": 560,
      "Ġsleep": 561,
      "è²·": 562,
      "Ġqu": 563,
      "ig": 564,
      "vie": 565,
      "á»Ļ": 566,
      "áº¿t": 567,
      "äºĭ": 568,
      "Ġmovie": 569,
      "ãĤĴè¦ĭãģ¾ãģĻ": 570,
      "Ġä»Ĭ": 571,
      "æĺ": 572,
      "ĠsÃ¡": 573,
      "Ġlis": 574,
      "Ġtoday": 575,
      "ãĤĴé£²": 576,
      "ãĤĴé£²ãģ¿ãģ¾ãģĻ": 577,
      "Ġnow": 578,
      "Ġcold": 579,
      "ĠElle": 580,
      "Ġbook": 581,
      "Ġbáº¡n": 582,
      "Ĺħ": 583,
      "ĠHá»į": 584,
      "Ġmai": 585,
      "ĠAnh": 586,
      "ıĭ": 587,
      "áº¯": 588,
      "Ġwalk": 589,
      "°Ĺ": 590,
      "ãģ«è¡Įãģįãģ¾ãģĻ": 591,
      "Ġtem": 592,
      "Ġtrá»Ŀi": 593,
      "Ġup": 594,
      "ĠLÃºc": 595,
      "Ġtemp": 596,
      "çī": 597,
      "ion": 598,
      "ãģĬ": 599,
      "å½¼ãĤī": 600,
      "che": 601,
      "Ġmange": 602,
      "å½¼ãĤīãģ¯": 603,
      "Ġdo": 604,
      "ĠIls": 605,
      "Ġva": 606,
      "éģĶ": 607,
      "ıĭéģĶ": 608,
      "ry": 609,
      "ķäºĭ": 610,
      "arly": 611,
      "ãģĮãģĤ": 612,
      "'t": 613,
      "cu": 614,
      "ed": 615,
      "You": 616,
      "od": 617,
      "ver": 618,
      "Ġfor": 619,
      "Ġfai": 620,
      "ort": 621,
      "Ġfamily": 622,
      "hÃ¨": 623,
      "Ġgiá»": 624,
      "ine": 625,
      "Ġgiá»Ŀ": 626,
      "Ġhá»įc": 627,
      "ãĤ¯": 628,
      "ãĤĬ": 629,
      "ord": 630,
      "Ãły": 631,
      "Ã¢": 632,
      "éĻ": 633,
      "ve": 634,
      "Ãłi": 635,
      "ªãģĳãĤĮãģ°": 636,
      "ui": 637,
      "Ġwee": 638,
      "á»ĳi": 639,
      "å®¶ãģ§": 640,
      "ãĥ¼ãĥ": 641,
      "æĻĤãģ¯": 642,
      "ãģĮãģĤãĤĮãģ°": 643,
      "Ġmed": 644,
      "çī©": 645,
      "end": 646,
      "ĭnh": 647,
      "Ġal": 648,
      "ĠÄĳá»ĭnh": 649,
      "Ġplay": 650,
      "hÃ¨te": 651,
      "ĩº": 652,
      "Ġmone": 653,
      "å®¶ãģ«ãģĦãģ¾ãģĻ": 654,
      "Ġmoney": 655,
      "ĩnh": 656,
      "Ľ¨": 657,
      "Ġbá»ĩnh": 658,
      "gar": 659,
      "Ġearly": 660,
      "Ġregar": 661,
      "ĠmÆ°a": 662,
      "reau": 663,
      "Ġbureau": 664,
      "ĠP": 665,
      "ĠYou": 666,
      "Ġcal": 667,
      "Ġnee": 668,
      "Ġhot": 669,
      "Ġneed": 670,
      "ast": 671,
      "oÃłi": 672,
      "ten": 673,
      "ģn": 674,
      "ĠngoÃłi": 675,
      "Ġlisten": 676,
      "Ġtemps": 677,
      "gÃły": 678,
      "Ġen": 679,
      "ĠNgÃły": 680,
      "ne": 681,
      "ner": 682,
      "æł": 683,
      "æł¡": 684,
      "ce": 685,
      "¤ĸ": 686,
      "ãģįãģ¾ãģĻ": 687,
      "ãĥĥ": 688,
      "é£Łãģ¹ãģ¾ãģĻ": 689,
      "Ġfeeling": 690,
      "igh": 691,
      "hing": 692,
      "mis": 693,
      "Ġmor": 694,
      "Ġwit": 695,
      "ĠnÃ³": 696,
      "Ġthere": 697,
      "Ġmorning": 698,
      "Ġwith": 699,
      "ose": 700,
      "que": 701,
      "²ng": 702,
      "Äĥn": 703,
      "åĭ": 704,
      "ĠvÄĥn": 705,
      "ick": 706,
      "ĠphÃ²ng": 707,
      "©ãģĹãģ¾ãģĻ": 708,
      "æ°Ĺ": 709,
      "ĠtáºŃ": 710,
      "ĠmÃ¬nh": 711,
      "Ġinside": 712,
      "ĠéĽ¨": 713,
      "ĠtáºŃp": 714,
      "ä»": 715,
      "ä¸Ģ": 716,
      "ĠtrÆ°": 717,
      "á»Ŀng": 718,
      "ĠtrÆ°á»Ŀng": 719,
      "Ġlun": 720,
      "Ġphi": 721,
      "Ġdays": 722,
      "Ġmovies": 723,
      "Ġregarde": 724,
      "Ġlunch": 725,
      "Ġphim": 726,
      "ll": 727,
      "Ġsick": 728,
      "ĠWe": 729,
      "ãģĮæ": 730,
      "Ġvais": 731,
      "ĠdÃ©": 732,
      "Ń¦æł¡": 733,
      "çĶ": 734,
      "ĥį": 735,
      "Ġlate": 736,
      "Ġpre": 737,
      "ffee": 738,
      "Ġcoffee": 739,
      "çĶ»": 740,
      "ãģ®": 741,
      "Ġche": 742,
      "ole": 743,
      "Ã©cole": 744,
      "ip": 745,
      "oi": 746,
      "ĠãģĬ": 747,
      "Ġord": 748,
      "áº£": 749,
      "Ġdá»": 750,
      "Ġbe": 751,
      "ãģĦãĤĮãģ°": 752,
      "Æ°á»Ľ": 753,
      "ours": 754,
      "Ġmusic": 755,
      "Ġorder": 756,
      "ble": 757,
      "Ġlear": 758,
      "Ġtiá»": 759,
      "reat": 760,
      "Ġvac": 761,
      "Ġoutside": 762,
      "Ġlearn": 763,
      "Ġtiá»ģn": 764,
      "å¾": 765,
      "Ġdin": 766,
      "äºº": 767,
      "Ġdinner": 768,
      "ck": 769,
      "æ¥": 770,
      "łçĶ»": 771,
      "Ńa": 772,
      "á»§": 773,
      "á»Ńa": 774,
      "Ġcá»Ńa": 775,
      "ation": 776,
      "ĠWhi": 777,
      "Ġtrave": 778,
      "Ġnghe": 779,
      "Ġngá»§": 780,
      "Ġgames": 781,
      "ĠWhile": 782,
      "Ġtravel": 783,
      "ĠbáºŃ": 784,
      "ĠngÆ¡i": 785,
      "ight": 786,
      "fli": 787,
      "ule": 788,
      "¥c": 789,
      "åĩº": 790,
      "ĠB": 791,
      "ãĤ³": 792,
      "Ġamis": 793,
      "Ġfin": 794,
      "Ġnight": 795,
      "ings": 796,
      "ont": 797,
      "etfli": 798,
      "hÃ´pital": 799,
      "Ġthá»ĥ": 800,
      "ĹħéĻ": 801,
      "Ġdá»¥c": 802,
      "etflix": 803,
      "ĹħéĻ¢": 804,
      "Ġviá»ĩn": 805,
      "ique": 806,
      "pr": 807,
      "ors": 808,
      "ãģ«ä¼ļ": 809,
      "Ġæļ": 810,
      "Ġcom": 811,
      "Ã¨s": 812,
      "Ġrep": 813,
      "ĠÄĳá»ĵ": 814,
      "ãģ«ä¼ļãģĦãģ¾ãģĻ": 815,
      "ãģĭ": 816,
      "Ġsn": 817,
      "Ġmá»Ļ": 818,
      "Ġdáº¡": 819,
      "ĠSau": 820,
      "æĹ¥ãģ¯": 821,
      "é£Łãģ¹ãĤĭ": 822,
      "ress": 823,
      "Ġweeke": 824,
      "å¾Į": 825,
      "Ġmá»Ļt": 826,
      "Ġdáº¡o": 827,
      "Ġdec": 828,
      "¬ãĤĴè": 829,
      "dule": 830,
      "¯Ŀ": 831,
      "Ġsche": 832,
      "Ġbois": 833,
      "ãĥ©": 834,
      "ãĥ¬": 835,
      "ãĤĴæ": 836,
      "Ġå¤": 837,
      "Ġcall": 838,
      "Ġschedule": 839,
      "qua": 840,
      "Ġqua": 841,
      "Ġalone": 842,
      "kip": 843,
      "ĠhÃł": 844,
      "ĭåĭ": 845,
      "ķãģĹãģ¾ãģĻ": 846,
      "Ġtur": 847,
      "Ġskip": 848,
      "ĠnÆ°á»Ľ": 849,
      "ãģĹãģĳãĤĮãģ°": 850,
      "ĠApr": 851,
      "éģĭåĭ": 852,
      "ãĥĥãĤ¯": 853,
      "ĥįãģı": 854,
      "ĠhÃłng": 855,
      "Ġturn": 856,
      "ĠAprÃ¨s": 857,
      "éģĭåĭķãģĹãģ¾ãģĻ": 858,
      "ç¤": 859,
      "ppre": 860,
      "ä¼ļç¤": 861,
      "get": 862,
      "ä¼ļç¤¾ãģ": 863,
      "£æ": 864,
      "æķ": 865,
      "Ń©ãģĹãģ¾ãģĻ": 866,
      "Ġhu": 867,
      "Ġnay": 868,
      "Ġbuá»": 869,
      "æĺłçĶ»": 870,
      "ĠnÃ³ng": 871,
      "£æŃ©ãģĹãģ¾ãģĻ": 872,
      "æķ£æŃ©ãģĹãģ¾ãģĻ": 873,
      "æĺłçĶ»ãĤĴè¦ĭãģ¾ãģĻ": 874,
      "ier": 875,
      "Ġè": 876,
      "icine": 877,
      "Ġmedicine": 878,
      "main": 879,
      "Ġdemain": 880,
      "hui": 881,
      "ind": 882,
      "jour": 883,
      "oy": 884,
      "ong": 885,
      "rá»Ŀi": 886,
      "İæĹ¥": 887,
      "Ġsp": 888,
      "Ġfil": 889,
      "Ġwind": 890,
      "Ġpla": 891,
      "ĠTrá»Ŀi": 892,
      "Ġra": 893,
      "ĠchÆ¡i": 894,
      "endant": 895,
      "ĠPendant": 896,
      "¤ĸåĩº": 897,
      "Ġprends": 898,
      "jourd": 899,
      "Ġfilm": 900,
      "¨æĹ¥": 901,
      "ĠéĢ": 902,
      "ĠsÃ¡ch": 903,
      "ade": 904,
      "çµ": 905,
      "çĹħéĻ¢": 906,
      "Ġå½¼ãĤīãģ¯": 907,
      "ģ´": 908,
      "ãĤģ": 909,
      "Ġan": 910,
      "Ġar": 911,
      "Ġláº¡": 912,
      "Ġhier": 913,
      "Ġpas": 914,
      "ĠNetflix": 915,
      "ãģĦãģŁãĤī": 916,
      "Ġgood": 917,
      "Ġsun": 918,
      "ãĤĴèģ´": 919,
      "ãģĮãģªãģĳãĤĮãģ°": 920,
      "è²·ãģĦ": 921,
      "Ġaujourd": 922,
      "Ã¢y": 923,
      "gas": 924,
      "rÃ©": 925,
      "Ġmagas": 926,
      "áº¯m": 927,
      "Ġmagasin": 928,
      "om": 929,
      "Ã£": 930,
      "Ġsáº¯m": 931,
      "Ġav": 932,
      "ree": 933,
      "Ġcle": 934,
      "ĠcÃł": 935,
      "Ġlá»": 936,
      "Ġgr": 937,
      "ĠæĹ": 938,
      "ĠphÃª": 939,
      "ä»ķäºĭ": 940,
      "low": 941,
      "ment": 942,
      "Ġworking": 943,
      "Ġä»ĬæĹ¥": 944,
      "ĠBÃ¢y": 945,
      "ãģŁãģĦ": 946,
      "ıĭéģĶãģ«ä¼ļãģĦãģ¾ãģĻ": 947,
      "cont": 948,
      "ncont": 949,
      "ºĹ": 950,
      "Īå®": 951,
      "ĵn": 952,
      "Ġca": 953,
      "ish": 954,
      "Ġwant": 955,
      "Ġrencont": 956,
      "ĠÄĳÃ³": 957,
      "ä¼ļãģĨ": 958,
      "Ġhung": 959,
      "è²·ãģĦçī©": 960,
      "Īå®ļ": 961,
      "sy": 962,
      "åĥįãģı": 963,
      "Ġseu": 964,
      "Ġbusy": 965,
      "ĵãģ¨": 966,
      "ãģĵãģ¨": 967,
      "Ġå¿": 968,
      "Ġæĺ¨æĹ¥": 969,
      "Ġrencontre": 970,
      "Ġsá»Ľ": 971,
      "ãĤı": 972,
      "orm": 973,
      "Ġstorm": 974,
      "ãģªãģ£ãģŁãĤī": 975,
      "Ġrun": 976,
      "ack": 977,
      "ĠæĺİæĹ¥": 978,
      "ĠsÃ¡ng": 979,
      "Ġfait": 980,
      "Ġvacation": 981,
      "Ġsnack": 982,
      "Ġweekend": 983,
      "çµĤ": 984,
      "Ġseul": 985,
      "Ġsá»Ľm": 986,
      "Ġest": 987,
      "ite": 988,
      "æľ¬ãĤĴè": 989,
      "äººãģ§": 990,
      "chÃ¨te": 991,
      "mÃ¨": 992,
      "xi": 993,
      "Ĵãĥ¼": 994,
      "hÃ¡": 995,
      "ĠachÃ¨te": 996,
      "Ġbad": 997,
      "Ġpo": 998,
      "Ġpro": 999,
      "ãĤĴãģĹãģ¾ãģĻ": 1000,
      "áº¡c": 1001,
      "Ġmanger": 1002,
      "Ġnháº¡c": 1003,
      "ãĥ¼ãĥĴãĥ¼": 1004,
      "ãĤ³ãĥ¼ãĥĴãĥ¼": 1005,
      "Ġplan": 1006,
      "mÃ¨ne": 1007,
      "ĠpromÃ¨ne": 1008,
      "ãĤ³ãĥ¼ãĥĴãĥ¼ãĤĴé£²ãģ¿ãģ¾ãģĻ": 1009,
      "ure": 1010,
      "nten": 1011,
      "ntenant": 1012,
      "yáº¿t": 1013,
      "ħ¹": 1014,
      "Ġmal": 1015,
      "Ġfree": 1016,
      "Ġrains": 1017,
      "Ġquyáº¿t": 1018,
      "ãģ¦ãģĦãĤĭ": 1019,
      "Ġmaintenant": 1020,
      "ãģł": 1021,
      "Ġli": 1022,
      "bre": 1023,
      "Ãª": 1024,
      "éĸ": 1025,
      "Ġheat": 1026,
      "Ġne": 1027,
      "ãĥª": 1028,
      "ĠEn": 1029,
      "ãĤĵ": 1030,
      "æ°ĹãģªãĤī": 1031,
      "ĠbáºŃn": 1032,
      "Ġdecide": 1033,
      "Ġmat": 1034,
      "Ġdon": 1035,
      "Ġå¿Ļ": 1036,
      "Ġmatin": 1037,
      "ux": 1038,
      "uie": 1039,
      "¯a": 1040,
      "çĿ": 1041,
      "Ŀi": 1042,
      "Ġtalk": 1043,
      "Ġtá»ĳi": 1044,
      "Ġappre": 1045,
      "ound": 1046,
      "sed": 1047,
      "ãģıãģªãģ£ãģŁãĤī": 1048,
      "Ġbá»¯a": 1049,
      "Ġtravail": 1050,
      "Ġthings": 1051,
      "rong": 1052,
      "ressed": 1053,
      "Ġthá»Ŀi": 1054,
      "á»Ļn": 1055,
      "Ġrepose": 1056,
      "Ġaround": 1057,
      "ĠÄĳÃ³i": 1058,
      "çµĤãĤı": 1059,
      "çĿĢ": 1060,
      "ir": 1061,
      "Ġpar": 1062,
      "ccu": 1063,
      "fast": 1064,
      "Ġoccu": 1065,
      "á»ĳn": 1066,
      "Ġmuá»ĳn": 1067,
      "Ġbreakfast": 1068,
      "Ġoccup": 1069,
      "ge": 1070,
      "rate": 1071,
      "§n": 1072,
      "³æ¥": 1073,
      "½ãĤĴèģ´": 1074,
      "Ł³æ¥": 1075,
      "áº§n": 1076,
      "ãĤĴé£Łãģ¹ãģ¾ãģĻ": 1077,
      "Ġover": 1078,
      "æĹı": 1079,
      "Ã©cout": 1080,
      "Ġmusique": 1081,
      "Ġláº¡nh": 1082,
      "Ł³æ¥½ãĤĴèģ´": 1083,
      "Ġveu": 1084,
      "Ġles": 1085,
      "Ġä¸": 1086,
      "è²·ãģĨ": 1087,
      "ut": 1088,
      "Ġple": 1089,
      "ĠÄĳá»įc": 1090,
      "Ġä½": 1091,
      "è¡Įãģı": 1092,
      "ä¼ļç¤¾ãģ§": 1093,
      "are": 1094,
      "ea": 1095,
      "lf": 1096,
      "thing": 1097,
      "Ġthi": 1098,
      "Ġtea": 1099,
      "Ġcu": 1100,
      "Ġvois": 1101,
      "Ġleave": 1102,
      "self": 1103,
      "á»ĳt": 1104,
      "Ġmyself": 1105,
      "Ġune": 1106,
      "áº·t": 1107,
      "Ġä»ķäºĭ": 1108,
      "ä¼ĳãģ¿ãģ¾ãģĻ": 1109,
      "Ġfamille": 1110,
      "Ġsomething": 1111,
      "ãĤĬãģ¾ãģĻ": 1112,
      "Ġfinish": 1113,
      "Ġhungry": 1114,
      "è²·ãģĦçī©ãģ«è¡Įãģįãģ¾ãģĻ": 1115,
      "ement": 1116,
      "Łãģı": 1117,
      "ãģį": 1118,
      "ĠprÃ©": 1119,
      "ntement": 1120,
      "Ġlentement": 1121,
      "ĠprÃ©v": 1122,
      "ang": 1123,
      "®¶": 1124,
      "Ġworks": 1125,
      "Ġå®¶": 1126,
      "ri": 1127,
      "²ãĥ¼ãĥ": 1128,
      "ĳm": 1129,
      "łãĤĴãģĹãģ¾ãģĻ": 1130,
      "ãģ¶": 1131,
      "Ġsors": 1132,
      "ãĤ²ãĥ¼ãĥ": 1133,
      "ĠdÃ©c": 1134,
      "Ġá»ĳm": 1135,
      "Ġstays": 1136,
      "æĹ¥ãģªãĤī": 1137,
      "Ġwatching": 1138,
      "ãĤ¹ãĥ": 1139,
      "Ń¦ãģ¶": 1140,
      "very": 1141,
      "Ġbuá»ĵn": 1142,
      "ãĤ²ãĥ¼ãĥłãĤĴãģĹãģ¾ãģĻ": 1143,
      "ĠdÃ©cide": 1144,
      "anh": 1145,
      "Ġnhanh": 1146,
      "ä¸Ģäººãģ§": 1147,
      "Ń¦æł¡ãģ§": 1148,
      "ªŃ": 1149,
      "ĠãĤ": 1150,
      "ªŃãģ¿ãģ¾ãģĻ": 1151,
      "cast": 1152,
      "hone": 1153,
      "¯Ĵ": 1154,
      "Ġãĥ": 1155,
      "Ġå½¼å¥³ãģ¯": 1156,
      "Ġå½¼ãģ¯": 1157,
      "ĩĳ": 1158,
      "Ġsee": 1159,
      "á»ĩ": 1160,
      "Ġbore": 1161,
      "Ġwar": 1162,
      "Ġjours": 1163,
      "Ġpod": 1164,
      "ous": 1165,
      "ãģĦæĻĤãģ¯": 1166,
      "Ġgoes": 1167,
      "ĠTrong": 1168,
      "ĠæĻĤ": 1169,
      "Ġå¯Ĵ": 1170,
      "Ġtaxi": 1171,
      "äºĪå®ļ": 1172,
      "ĠLes": 1173,
      "Ġmuá»Ļn": 1174,
      "ãĤ¹ãģĹãģ¾ãģĻ": 1175,
      "áº¯ng": 1176,
      "Ġlistening": 1177,
      "Ġæļĳ": 1178,
      "ãĥ©ãĥĥãĤ¯": 1179,
      "æľ¬ãĤĴèªŃãģ¿ãģ¾ãģĻ": 1180,
      "Ġmalade": 1181,
      "éĸĵ": 1182,
      "ãĥªãĥ©ãĥĥãĤ¯": 1183,
      "Ġbored": 1184,
      "Ġwarm": 1185,
      "Ġpodcast": 1186,
      "ĠæĻĤéĸĵ": 1187,
      "ãĥªãĥ©ãĥĥãĤ¯ãĤ¹ãģĹãģ¾ãģĻ": 1188,
      "achÃ¨te": 1189,
      "éĢ": 1190,
      "Ġpleut": 1191,
      "éĢŁãģı": 1192,
      "ap": 1193,
      "lo": 1194,
      "ss": 1195,
      "tr": 1196,
      "ts": 1197,
      "©c": 1198,
      "ķi": 1199,
      "Ġfu": 1200,
      "áº¥u": 1201,
      "Ġvis": 1202,
      "ĠÄĳÃ¬nh": 1203,
      "Ġstress": 1204,
      "áº¡ng": 1205,
      "Ġwater": 1206,
      "Ġbuys": 1207,
      "²·ãģĨ": 1208,
      "Ġgia": 1209,
      "Ġnothing": 1210,
      "æĺ¼": 1211,
      "ä¸Ģç": 1212,
      "oid": 1213,
      "ĠnÆ°á»Ľc": 1214,
      "ä»ķäºĭãģĹãģ¾ãģĻ": 1215,
      "Ġslow": 1216,
      "Ġapprend": 1217,
      "Ġslowly": 1218,
      "eun": 1219,
      "jeun": 1220,
      "å¯Ŀ": 1221,
      "Ġä¼ĳ": 1222,
      "ãģĪ": 1223,
      "Ġtoget": 1224,
      "ãģ«æ": 1225,
      "Ġeating": 1226,
      "ĠçĹħ": 1227,
      "ĠdÃ©jeun": 1228,
      "ºĹãģ§": 1229,
      "Ġtogether": 1230,
      "ĠdÃ©jeuner": 1231,
      "aur": 1232,
      "be": 1233,
      "vre": 1234,
      "±º": 1235,
      "¹p": 1236,
      "èħ¹": 1237,
      "Ġtá»ĳt": 1238,
      "áº¹p": 1239,
      "Ġmake": 1240,
      "Ġráº£": 1241,
      "Ġrestaur": 1242,
      "Ġsport": 1243,
      "ãĤģãģŁ": 1244,
      "Ġwants": 1245,
      "ãģĵãģ¨ãģ«æ": 1246,
      "±ºãĤģãģŁ": 1247,
      "Ġráº£nh": 1248,
      "Ġrestaurant": 1249,
      "ãģĵãģ¨ãģ«æ±ºãĤģãģŁ": 1250,
      "¸°": 1251,
      "ĤªãģĳãĤĮãģ°": 1252,
      "áºŃm": 1253,
      "ĠcháºŃm": 1254,
      "ãģĮæĤªãģĳãĤĮãģ°": 1255,
      "ied": 1256,
      "Ġeats": 1257,
      "Ġwell": 1258,
      "ab": 1259,
      "fu": 1260,
      "fÃ©": 1261,
      "lÃ©": 1262,
      "ny": 1263,
      "hed": 1264,
      "Ġcla": 1265,
      "Ġnice": 1266,
      "Ãło": 1267,
      "Ġholi": 1268,
      "Ġof": 1269,
      "ĠrÃ©": 1270,
      "Ġfast": 1271,
      "Ġcome": 1272,
      "é£ŁãĤĴé£Łãģ¹ãģ¾ãģĻ": 1273,
      "ãģĳãģ¾ãģĻ": 1274,
      "Ġinv": 1275,
      "Ġtiáº¿t": 1276,
      "ĠthÆ°": 1277,
      "ĠgiÃ£": 1278,
      "ãģ¦ãģĦãĤĮãģ°": 1279,
      "¤ĸåĩºãģĹãģ¾ãģĻ": 1280,
      "Ġsunny": 1281,
      "Ġgrab": 1282,
      "ĠcafÃ©": 1283,
      "Ġrunning": 1284,
      "Ġsnacks": 1285,
      "ful": 1286,
      "Ġholiday": 1287,
      "ĠgiÃ£n": 1288,
      "Ġhá»į": 1289,
      "Ġ.": 1290,
      "Ġvite": 1291,
      "ĠoccupÃ©": 1292,
      "nic": 1293,
      "ther": 1294,
      "uáº§n": 1295,
      "åĪ": 1296,
      "éĩĳ": 1297,
      "Ĩãĥ¬": 1298,
      "ĬãģĹãģ¾ãģĻ": 1299,
      "ĠtÃ©": 1300,
      "Ġtuáº§n": 1301,
      "ĠmÃ©": 1302,
      "Ġdone": 1303,
      "Ġnáº¯ng": 1304,
      "Ġpic": 1305,
      "Ġvui": 1306,
      "ĠÄĳáº·t": 1307,
      "ãĥĵ": 1308,
      "ãģĹãģŁãĤī": 1309,
      "ĠtrÆ°a": 1310,
      "Ġother": 1311,
      "set": 1312,
      "Æ°á»": 1313,
      "ĠåıĭéģĶ": 1314,
      "ãģĮçµĤãĤı": 1315,
      "ance": 1316,
      "roke": 1317,
      "ãģ®æĹ¥ãģ¯": 1318,
      "Ġcheck": 1319,
      "ĠæĹ©": 1320,
      "Ġplans": 1321,
      "Ġå®¶æĹı": 1322,
      "Ĩãĥ¬ãĥĵ": 1323,
      "ĠtÃ©lÃ©": 1324,
      "ĠmÃ©d": 1325,
      "Ġpicnic": 1326,
      "Ĩãģ£": 1327,
      "ãģıãĤĬ": 1328,
      "Ġå¿ĻãģĹãģĳãĤĮãģ°": 1329,
      "Ĩãģ£ãģıãĤĬ": 1330,
      "rit": 1331,
      "åŃ¦ãģ¶": 1332,
      "Ġlo": 1333,
      "ach": 1334,
      "im": 1335,
      "ocu": 1336,
      "¢¨": 1337,
      "·Ĵ": 1338,
      "æļ": 1339,
      "éŁ³æ¥½ãĤĴèģ´": 1340,
      "Ġtreat": 1341,
      "Ġsou": 1342,
      "ĠcÃ": 1343,
      "Ġcook": 1344,
      "ĠchÃ¡": 1345,
      "Ġfocu": 1346,
      "Ġhou": 1347,
      "Ġvá»Ľ": 1348,
      "ien": 1349,
      "ĠAt": 1350,
      "ãģ£ãģ¦": 1351,
      "ĠLe": 1352,
      "ĠOnce": 1353,
      "Ġxong": 1354,
      "Ġbeau": 1355,
      "ĠéĢĢ": 1356,
      "Ġclean": 1357,
      "Ġdecides": 1358,
      "Ã©coute": 1359,
      "ãĤ¹ãĥĪ": 1360,
      "ä¸Ģç·Ĵ": 1361,
      "éŁ³æ¥½ãĤĴèģ´ãģįãģ¾ãģĻ": 1362,
      "ĠchÃ¡n": 1363,
      "Ġfocus": 1364,
      "Ġhouse": 1365,
      "Ġvá»Ľi": 1366,
      "gh": 1367,
      "ãģ¤": 1368,
      "Ġmoi": 1369,
      "Ġchez": 1370,
      "able": 1371,
      "fort": 1372,
      "lla": 1373,
      "mbre": 1374,
      "©º": 1375,
      "¼ãģ¿ãģ¾ãģĻ": 1376,
      "åī": 1377,
      "éł": 1378,
      "įãĤĴ": 1379,
      "head": 1380,
      "Ġsw": 1381,
      "Ġsave": 1382,
      "Ġahead": 1383,
      "Ġcou": 1384,
      "Ã´t": 1385,
      "Ġbreat": 1386,
      "Ġwon": 1387,
      "Ġhur": 1388,
      "Ġphone": 1389,
      "med": 1390,
      "Ġvi": 1391,
      "ãĥ³": 1392,
      "Ġdeep": 1393,
      "Ġdeli": 1394,
      "å½¼å¥³ãģ¯å®¶ãģ«ãģĦãģ¾ãģĻ": 1395,
      "å½¼ãģ¯å®¶ãģ«ãģĦãģ¾ãģĻ": 1396,
      "ĠtrÃł": 1397,
      "Ġumbre": 1398,
      "Ġeaten": 1399,
      "aud": 1400,
      "Ġfrom": 1401,
      "Ġchaud": 1402,
      "asse": 1403,
      "æľĿ": 1404,
      "Ġsomeone": 1405,
      "Ġcomfort": 1406,
      "ãģ¦ãģĦãĤĭæĻĤ": 1407,
      "Ġlivre": 1408,
      "ĠçĹħæ°ĹãģªãĤī": 1409,
      "åīįãĤĴ": 1410,
      "éł¼ãģ¿ãģ¾ãģĻ": 1411,
      "Ġbreathe": 1412,
      "Ġhurry": 1413,
      "Ġdeeply": 1414,
      "Ġdelivery": 1415,
      "Ġumbrella": 1416,
      "åīįãĤĴéł¼ãģ¿ãģ¾ãģĻ": 1417,
      "å¸°": 1418,
      "ĠprÃ©vo": 1419,
      "å¤": 1420,
      "ãĤĨãģ£ãģıãĤĬ": 1421,
      "VÃło": 1422,
      "us": 1423,
      "uá»ĳ": 1424,
      "±æľ": 1425,
      "ĠVÃło": 1426,
      "ŁãĤī": 1427,
      "Ġsing": 1428,
      "Ġaff": 1429,
      "Ġcas": 1430,
      "Ġdance": 1431,
      "ĠlÃºc": 1432,
      "Ġjour": 1433,
      "Ġpress": 1434,
      "ãĥĨãĥ¬ãĥĵ": 1435,
      "ãģªãģĮ": 1436,
      "ãĤĮãģŁãĤī": 1437,
      "ĠæĤ": 1438,
      "Ġmets": 1439,
      "Ġäº": 1440,
      "ãģĮãģĦ": 1441,
      "Ġthuá»ĳ": 1442,
      "ä¸Ń": 1443,
      "ĠéĽ¨ãģªãĤī": 1444,
      "Ġfilms": 1445,
      "Ġfull": 1446,
      "Ġvisit": 1447,
      "ãĥĨãĥ¬ãĥĵãĤĴè¦ĭãģ¾ãģĻ": 1448,
      "ãģªãģĮãĤī": 1449,
      "Ġthuá»ĳc": 1450,
      "Ġæľ": 1451,
      "Tu": 1452,
      "and": 1453,
      "ming": 1454,
      "mand": 1455,
      "ud": 1456,
      "uit": 1457,
      "åĿ": 1458,
      "ķãĤ": 1459,
      "ĠtÃ¢": 1460,
      "Ġmon": 1461,
      "Ġcan": 1462,
      "ĠdáºŃ": 1463,
      "Ġloo": 1464,
      "atur": 1465,
      "Ġnuit": 1466,
      "ert": 1467,
      "ĠÄĳáº¿": 1468,
      "aila": 1469,
      "ĠSatur": 1470,
      "Ã©e": 1471,
      "Ġtráº¡ng": 1472,
      "arge": 1473,
      "iet": 1474,
      "ãģ«ãģĦãĤĭ": 1475,
      "Ġæ°Ĺ": 1476,
      "ows": 1477,
      "Ġkhi": 1478,
      "Ġé¢¨": 1479,
      "Ġbá»ı": 1480,
      "Ġrainy": 1481,
      "ĠquÃ¡": 1482,
      "Ġquiet": 1483,
      "vec": 1484,
      "Ġweek": 1485,
      "ĠPar": 1486,
      "ĠãģĬéĩĳ": 1487,
      "æ¥Ń": 1488,
      "Ġcommand": 1489,
      "Ġå¤ľ": 1490,
      "Ġwindy": 1491,
      "Ġavaila": 1492,
      "Ġlá»ħ": 1493,
      "åĪĨ": 1494,
      "ĠæľĿ": 1495,
      "Tube": 1496,
      "ĠtÃ¢m": 1497,
      "ĠdáºŃy": 1498,
      "Ġloose": 1499,
      "ĠÄĳáº¿n": 1500,
      "ĠSaturday": 1501,
      "argent": 1502,
      "Ġæ°ĹåĪĨ": 1503,
      "Ġcommande": 1504,
      "Ġavailable": 1505,
      "èĸ": 1506,
      "ãģĮéĻ": 1507,
      "ãģ«è¡Įãģı": 1508,
      "ĠéĽ¨ãģĮéĻ": 1509,
      "çĹħéĻ¢ãģ§": 1510,
      "ãģłãģ£ãģŁãĤī": 1511,
      "ĠéĽ¨ãģĮéĻį": 1512,
      "dget": 1513,
      "rst": 1514,
      "©æ°Ĺ": 1515,
      "±Ī": 1516,
      "å±Ī": 1517,
      "èµ": 1518,
      "Ĭľ": 1519,
      "Ļ´": 1520,
      "ĽãĤĵ": 1521,
      "ãģ°": 1522,
      "Ġten": 1523,
      "ĠtÃ´t": 1524,
      "áº»": 1525,
      "Ġdow": 1526,
      "Ġfat": 1527,
      "ĠgÃ¬": 1528,
      "ãģ¾ãģĽãĤĵ": 1529,
      "Ġjou": 1530,
      "Ġpet": 1531,
      "ĠÄĳáº¹p": 1532,
      "ãģĦãģªãĤī": 1533,
      "ãģĹãģ¾ãģĽãĤĵ": 1534,
      "nts": 1535,
      "icame": 1536,
      "ĠæĻ´": 1537,
      "Ġbudget": 1538,
      "é£ŁãĤĴæ": 1539,
      "Ġfroid": 1540,
      "ens": 1541,
      "Ġshow": 1542,
      "ĠgiÃ³": 1543,
      "Ġtravailler": 1544,
      "igu": 1545,
      "ions": 1546,
      "Ġfaim": 1547,
      "ĠãģĬèħ¹": 1548,
      "Ġå¤©æ°Ĺ": 1549,
      "ĠnÆ°á»Ľng": 1550,
      "¤ĸåĩºãģĹãģ¾ãģĽãĤĵ": 1551,
      "Ġclear": 1552,
      "Ġthirst": 1553,
      "Ġcuá»ĳi": 1554,
      "ĠmÃ©dicame": 1555,
      "ĠéĢĢå±Ī": 1556,
      "å¤©": 1557,
      "Ĭľãģįãģ¾ãģĻ": 1558,
      "Ġdown": 1559,
      "Ġfatigu": 1560,
      "Ġjoue": 1561,
      "Ġpetit": 1562,
      "é£ŁãĤĴæĬľãģįãģ¾ãģĻ": 1563,
      "Ġthirsty": 1564,
      "ĠmÃ©dicaments": 1565,
      "Ġä¸Ģ": 1566,
      "åĲ": 1567,
      "ake": 1568,
      "app": 1569,
      "ls": 1570,
      "mp": 1571,
      "ti": 1572,
      "ven": 1573,
      "wn": 1574,
      "°´": 1575,
      "ä¹": 1576,
      "å¼": 1577,
      "æĸ": 1578,
      "ĭch": 1579,
      "ãģİ": 1580,
      "á»©c": 1581,
      "Ġmood": 1582,
      "Ġare": 1583,
      "red": 1584,
      "Ġdar": 1585,
      "ĠthÃ©": 1586,
      "Ġwake": 1587,
      "Ġnáº¥u": 1588,
      "Ġeven": 1589,
      "nder": 1590,
      "hind": 1591,
      "Ġstressed": 1592,
      "ãĤĴãģ¤": 1593,
      "Ġunder": 1594,
      "Ġrus": 1595,
      "ãģ¿çī©": 1596,
      "Ġtired": 1597,
      "é£²ãģ¿çī©": 1598,
      "eux": 1599,
      "Ġbehind": 1600,
      "ĠbáºŃt": 1601,
      "Ġlá»ĭch": 1602,
      "ĠæĹ¥": 1603,
      "Ġcomes": 1604,
      "ä¸ŃãģªãĤī": 1605,
      "appy": 1606,
      "Ġdark": 1607,
      "Ġevening": 1608,
      "ãĤĴãģ¤ãģĳãģ¾ãģĻ": 1609,
      "Ġrushed": 1610,
      "á»ģ": 1611,
      "Ġvá»ģ": 1612,
      "ĠprÃ©voit": 1613,
      "Ġãģ": 1614,
      "ĠAu": 1615,
      "å®¶ãģ«å¸°": 1616,
      "ãĤĵãģł": 1617,
      "£c": 1618,
      "ħè¡Įãģ": 1619,
      "Ĺãģ¾ãģĻ": 1620,
      "Ġchi": 1621,
      "Ġdis": 1622,
      "Ġlow": 1623,
      "Ġbroke": 1624,
      "Ġends": 1625,
      "ĠÄĳÆ°á»": 1626,
      "ãģĦæĹ¥ãģ¯": 1627,
      "å½¼å¥³ãģ¯æ": 1628,
      "å½¼ãģ¯æ": 1629,
      "å½¼ãģ¯å®¶ãģ§": 1630,
      "æĹħè¡Įãģ": 1631,
      "ãģĮç": 1632,
      "ãģĮè": 1633,
      "Ġshort": 1634,
      "Ġgian": 1635,
      "Ġupset": 1636,
      "ãģ®æĻĤãģ¯": 1637,
      "Ġæļĩ": 1638,
      "Ġgrasse": 1639,
      "Ġpoor": 1640,
      "ĠmatinÃ©e": 1641,
      "Ġafford": 1642,
      "Ġcash": 1643,
      "Ġjourn": 1644,
      "ĠÄĳÆ°á»£c": 1645,
      "æĹħè¡ĮãģĹãģ¾ãģĻ": 1646,
      "Ġache": 1647,
      "ough": 1648,
      "å½¼å¥³ãģ¯å®¶ãģ§": 1649,
      "åºĹãģ§": 1650,
      "Ġé£Łãģ¹": 1651,
      "Ġse": 1652,
      "Ġju": 1653,
      "å½¼å¥³ãģ¯æķ£æŃ©ãģĹãģ¾ãģĻ": 1654,
      "å½¼ãģ¯æķ£æŃ©ãģĹãģ¾ãģĻ": 1655,
      "ãģĭãģ£ãģŁãĤī": 1656,
      "ais": 1657,
      "ces": 1658,
      "do": 1659,
      "drate": 1660,
      "uy": 1661,
      "ydrate": 1662,
      "£ķ": 1663,
      "©±": 1664,
      "ªãĤī": 1665,
      "·ãģį": 1666,
      "¾¼": 1667,
      "åŃ¦æł¡ãģ§": 1668,
      "è£ķ": 1669,
      "è©±": 1670,
      "è¾¼": 1671,
      "ģħ": 1672,
      "ĸ²": 1673,
      "Ļè£ķ": 1674,
      "á»ħ": 1675,
      "Ġmá»ĩ": 1676,
      "Ġavec": 1677,
      "Ġháº¿t": 1678,
      "Ġhydrate": 1679,
      "leil": 1680,
      "Ġtoo": 1681,
      "Ġpay": 1682,
      "ĠÄĳÃª": 1683,
      "ãĥĶ": 1684,
      "Ġtrá»ħ": 1685,
      "ĠcÃ´ng": 1686,
      "ĠæĢ": 1687,
      "áº¡i": 1688,
      "é£Łå¾Į": 1689,
      "ãģ¿ãģ®æĹ¥ãģ¯": 1690,
      "Ġoutdo": 1691,
      "áºŃn": 1692,
      "Ġtan": 1693,
      "ĠkhÃ¡": 1694,
      "Ġéģħ": 1695,
      "Ġsoleil": 1696,
      "Ġchuy": 1697,
      "ances": 1698,
      "tends": 1699,
      "Ġçĸ²": 1700,
      "ĠgiáºŃn": 1701,
      "Ġnhau": 1702,
      "Ġpluie": 1703,
      "Ġtemper": 1704,
      "Ġfaire": 1705,
      "ĩºåīįãĤĴéł¼ãģ¿ãģ¾ãģĻ": 1706,
      "Ġenough": 1707,
      "ĠnÃ³i": 1708,
      "ĠdÃ©tends": 1709,
      "ãģ®å¾Į": 1710,
      "oir": 1711,
      "Ġbeach": 1712,
      "Ġvacances": 1713,
      "¯ĿåĿ": 1714,
      "Ġbuá»ķi": 1715,
      "Ġpark": 1716,
      "Ġä½Ļè£ķ": 1717,
      "á»ĩn": 1718,
      "Ġclass": 1719,
      "ĠåıĭéģĶãģ¨": 1720,
      "ãģĮçµĤãĤıãģ£ãģŁãĤī": 1721,
      "Ġå®¶æĹıãģ¨": 1722,
      "ĠæĤ²": 1723,
      "å®¶ãģ«å¸°ãĤĬãģ¾ãģĻ": 1724,
      "ãĤĵãģłãĤī": 1725,
      "è©±ãģĹãģ¾ãģĻ": 1726,
      "Ġmá»ĩt": 1727,
      "ĠÄĳÃªm": 1728,
      "Ġoutdoors": 1729,
      "ĠkhÃ¡t": 1730,
      "Ġchuyá»ĩn": 1731,
      "Ġveut": 1732,
      "Ġacheter": 1733,
      "iz": 1734,
      "ĠÄĳang": 1735,
      "ller": 1736,
      "Ġlearns": 1737,
      "'ve": 1738,
      "age": 1739,
      "ct": 1740,
      "giz": 1741,
      "iate": 1742,
      "lore": 1743,
      "line": 1744,
      "mmed": 1745,
      "olo": 1746,
      "pone": 1747,
      "plore": 1748,
      "polo": 1749,
      "£ãĤ¹": 1750,
      "¥Ŀ": 1751,
      "ªãĥ": 1752,
      "¹ng": 1753,
      "Ã®": 1754,
      "Äĥ": 1755,
      "åıĭéģĶãģ«ä¼ļãģĦãģ¾ãģĻ": 1756,
      "æĨ": 1757,
      "ĠÃ¡": 1758,
      "Ġå½¼å¥³ãģ¯å": 1759,
      "Ĩ·": 1760,
      "Ġsau": 1761,
      "Ġsens": 1762,
      "á»ķi": 1763,
      "ãĤ·": 1764,
      "Ġmá»": 1765,
      "Ġmore": 1766,
      "Ġapolo": 1767,
      "Ġcrea": 1768,
      "ĠdÃ®": 1769,
      "isine": 1770,
      "Ġbed": 1771,
      "Ġbien": 1772,
      "Ġner": 1773,
      "Ġnap": 1774,
      "Ġice": 1775,
      "Ġimmed": 1776,
      "Ġjac": 1777,
      "Ġjoy": 1778,
      "Ġvoy": 1779,
      "stpone": 1780,
      "ãģĹãģ¦ãģĦãĤĮãģ°": 1781,
      "itation": 1782,
      "ãģ«é£Łãģ¹ãģ¾ãģĻ": 1783,
      "ĠAC": 1784,
      "ket": 1785,
      "Ġrester": 1786,
      "Ġmeal": 1787,
      "Ġshade": 1788,
      "Ġwent": 1789,
      "Ġwear": 1790,
      "Ġexplore": 1791,
      "ä¼ĳæĨ": 1792,
      "å½¼å¥³ãģ¯åıĭéģĶãģ«ä¼ļãģĦãģ¾ãģĻ": 1793,
      "å½¼ãģ¯åıĭéģĶãģ«ä¼ļãģĦãģ¾ãģĻ": 1794,
      "Ġdoor": 1795,
      "Ġdoct": 1796,
      "Ġdecline": 1797,
      "ä¼ļç¤¾ãģ«": 1798,
      "lows": 1799,
      "Ġpostpone": 1800,
      "Ġlibre": 1801,
      "Ġheater": 1802,
      "Ġcuisine": 1803,
      "Ġinvitation": 1804,
      "Ġlock": 1805,
      "imming": 1806,
      "Ġsoup": 1807,
      "ĠcÃ¹ng": 1808,
      "ä¸Ģç·Ĵãģ«é£Łãģ¹ãģ¾ãģĻ": 1809,
      "Ġswimming": 1810,
      "ķãĤ£ãĤ¹": 1811,
      "°´ãĤĴé£²ãģ¿ãģ¾ãģĻ": 1812,
      "gize": 1813,
      "iately": 1814,
      "ªãĥķãĤ£ãĤ¹": 1815,
      "Ġsaute": 1816,
      "Ġapologize": 1817,
      "Ġcream": 1818,
      "Ġnerv": 1819,
      "Ġimmediately": 1820,
      "Ġjacket": 1821,
      "Ġvoyage": 1822,
      "ä¼ĳæĨ©ãģĹãģ¾ãģĻ": 1823,
      "Ġdoctor": 1824,
      "Ġinvitations": 1825,
      "mble": 1826,
      "ķãģĭ": 1827,
      "Ġaller": 1828,
      "Ġstud": 1829,
      "semble": 1830,
      "ãĤĴè²·ãģĨ": 1831,
      "Ġensemble": 1832,
      "Ġå½¼ãģ¯å": 1833,
      "ĻãĤĭ": 1834,
      "Ġnour": 1835,
      "å½¼å¥³ãģ¯ãĤ³ãĥ¼ãĥĴãĥ¼ãĤĴé£²ãģ¿ãģ¾ãģĻ": 1836,
      "å½¼ãģ¯ãĤ³ãĥ¼ãĥĴãĥ¼ãĤĴé£²ãģ¿ãģ¾ãģĻ": 1837,
      "ĠåŃ¦æł¡": 1838,
      "Ġapprendre": 1839,
      "å¯Ŀãģ¾ãģĻ": 1840,
      "riture": 1841,
      "Ġstudy": 1842,
      "Ġnourriture": 1843,
      "dÃ©": 1844,
      "eau": 1845,
      "int": 1846,
      "pare": 1847,
      "rie": 1848,
      "±c": 1849,
      "¶ãĤĴé£²ãģ¿ãģ¾ãģĻ": 1850,
      "½ãģ": 1851,
      "æĽ": 1852,
      "èĮ": 1853,
      "ĠÃ´": 1854,
      "ģãģ£ãģ¦": 1855,
      "Ĥĺ": 1856,
      "Įģãģ£ãģ¦": 1857,
      "Ĳ½ãģ": 1858,
      "ľæĹ¥ãģªãĤī": 1859,
      "Ġcry": 1860,
      "Ġpau": 1861,
      "Ġrent": 1862,
      "Ġjeux": 1863,
      "ãģĦãģįãģ¾ãģĻ": 1864,
      "ãģĦãģŁãģĦ": 1865,
      "ãģĦãģ¦ãģĦãĤĮãģ°": 1866,
      "Ġgoing": 1867,
      "Ã©rie": 1868,
      "å½¼å¥³ãģ¯éģĭåĭķãģĹãģ¾ãģĻ": 1869,
      "å½¼ãģ¯éģĭåĭķãģĹãģ¾ãģĻ": 1870,
      "ard": 1871,
      "itate": 1872,
      "Ġkiá»ĩ": 1873,
      "Ġaux": 1874,
      "ãģĬèĮ": 1875,
      "Ġmeditate": 1876,
      "Ġprepare": 1877,
      "áº£i": 1878,
      "ãĤĴæĮģãģ£ãģ¦": 1879,
      "ĠéĢ±æľ": 1880,
      "ãģĵãģ¨ãģĮãģªãģĳãĤĮãģ°": 1881,
      "rive": 1882,
      "Ġinvest": 1883,
      "©ºãģĦãģ¦ãģĦãĤĮãģ°": 1884,
      "ĠvidÃ©": 1885,
      "ĠæĻ´ãĤĮãģ": 1886,
      "Ġshower": 1887,
      "å¤©æ°ĹãģªãĤī": 1888,
      "å¼·": 1889,
      "æĸĻ": 1890,
      "Ġjournal": 1891,
      "intÃ©rie": 1892,
      "æĽľæĹ¥ãģªãĤī": 1893,
      "ĤĺãĤĴæĮģãģ£ãģ¦": 1894,
      "Ĳ½ãģ¡": 1895,
      "Ġpause": 1896,
      "Ġrentre": 1897,
      "ãģĬèĮ¶ãĤĴé£²ãģ¿ãģ¾ãģĻ": 1898,
      "ĠéĢ±æľ«": 1899,
      "ĠvidÃ©o": 1900,
      "intÃ©rieur": 1901,
      "ĤĺãĤĴæĮģãģ£ãģ¦ãģĦãģįãģ¾ãģĻ": 1902,
      "appre": 1903,
      "ä½": 1904,
      "Ġthem": 1905,
      "Ġfriend": 1906,
      "Ġveux": 1907,
      "ci": 1908,
      "apprends": 1909,
      "brate": 1910,
      "ele": 1911,
      "ia": 1912,
      "rrit": 1913,
      "sse": 1914,
      "uá»ĳi": 1915,
      "¯ãģĳãĤĮãģ°": 1916,
      "ī¯ãģĳãĤĮãģ°": 1917,
      "á»¡": 1918,
      "Ġcele": 1919,
      "Ġfur": 1920,
      "Ġbrow": 1921,
      "ĠbÃ£": 1922,
      "Ġirrit": 1923,
      "å½¼å¥³ãģ¯æĺłçĶ»ãĤĴè¦ĭãģ¾ãģĻ": 1924,
      "å½¼ãģ¯æĺłçĶ»ãĤĴè¦ĭãģ¾ãģĻ": 1925,
      "ãģªãģĳãĤĮãģ°": 1926,
      "Ġmes": 1927,
      "ĠLá»¡": 1928,
      "Ġshare": 1929,
      "Ġsoci": 1930,
      "Ġxáº¥u": 1931,
      "ãĥ¼ãģªãĤī": 1932,
      "ãĤĴè¦ĭãģªãģĮãĤī": 1933,
      "Ġmedia": 1934,
      "ĠYouTube": 1935,
      "ĠãģĬä¼ĳ": 1936,
      "ĠachÃ¨tent": 1937,
      "Ġclasse": 1938,
      "Ġothers": 1939,
      "ãģ£ãģ¦ãģĦãģŁãĤī": 1940,
      "ĠäºĪå®ļ": 1941,
      "ãģĮèī¯ãģĳãĤĮãģ°": 1942,
      "Ġcelebrate": 1943,
      "Ġbrowse": 1944,
      "Ġsocial": 1945,
      "os": 1946,
      "å½¼å¥³ãģ¯è²·ãģĦçī©ãģ«è¡Įãģįãģ¾ãģĻ": 1947,
      "å½¼ãģ¯è²·ãģĦçī©ãģ«è¡Įãģįãģ¾ãģĻ": 1948,
      "Ġtravaillent": 1949,
      "Ġrepos": 1950,
      "Ġrencontrer": 1951,
      "Ġå¿ĻãģĹ": 1952,
      "ª¿": 1953,
      "®ĭ": 1954,
      "æ°´ãĤĴé£²ãģ¿ãģ¾ãģĻ": 1955,
      "å½¼å¥³ãģ¯ãĤ²ãĥ¼ãĥłãĤĴãģĹãģ¾ãģĻ": 1956,
      "å½¼ãģ¯ãĤ²ãĥ¼ãĥłãĤĴãģĹãģ¾ãģĻ": 1957,
      "ãģ«ãģĦãģ¾ãģĻ": 1958,
      "Ġbá»ĭ": 1959,
      "èĸ¬": 1960,
      "ent": 1961,
      "hou": 1962,
      "joy": 1963,
      "lp": 1964,
      "lose": 1965,
      "luie": 1966,
      "nuie": 1967,
      "sert": 1968,
      "tions": 1969,
      "uv": 1970,
      "und": 1971,
      "uá»ķi": 1972,
      "wor": 1973,
      "£ãģŁãĤī": 1974,
      "¤ãĥ": 1975,
      "¤ãĥ©": 1976,
      "¤ĬãģĹãģ¾ãģĻ": 1977,
      "¥ng": 1978,
      "¦ãģĦãĤĮãģ°": 1979,
      "©ãģı": 1980,
      "¬å": 1981,
      "®Ĺ": 1982,
      "²n": 1983,
      "¸ãģ¨": 1984,
      "ç®Ĺ": 1985,
      "é¤ĬãģĹãģ¾ãģĻ": 1986,
      "ĠÃ©cout": 1987,
      "ĠãĤ¹ãĥĪ": 1988,
      "ĦŁ": 1989,
      "ħ¬å": 1990,
      "Īæ¥Ń": 1991,
      "Īç®Ĺ": 1992,
      "ĭp": 1993,
      "ĭãĥĥãĤ¯": 1994,
      "İĪæ¥Ń": 1995,
      "ıe": 1996,
      "Ĵãģ«è¡Įãģįãģ¾ãģĻ": 1997,
      "ĺãģŁãĤī": 1998,
      "ľł": 1999,
      "ľĴãģ«è¡Įãģįãģ¾ãģĻ": 2000,
      "ãģĽ": 2001,
      "ãģĺãģŁãĤī": 2002,
      "Ġsá»©c": 2003,
      "á»ĭp": 2004,
      "ãĤªãĥķãĤ£ãĤ¹": 2005,
      "Ġcre": 2006,
      "Ġcours": 2007,
      "Ġclose": 2008,
      "Ġlook": 2009,
      "ĠfÃ©": 2010,
      "Ġfun": 2011,
      "Ġbon": 2012,
      "ãģ¾ãģ£ãģŁãĤī": 2013,
      "Ġwai": 2014,
      "Ġhelp": 2015,
      "Ġend": 2016,
      "Ġent": 2017,
      "less": 2018,
      "erme": 2019,
      "Ġpours": 2020,
      "Ġváº»": 2021,
      "Ġvent": 2022,
      "ĠSÃ¡": 2023,
      "ĠShou": 2024,
      "ĠSund": 2025,
      "ãĥ£": 2026,
      "ãĥĭãĥĥãĤ¯": 2027,
      "ãģĦãģ¦ãģĦãĤĭæĻĤ": 2028,
      "ntil": 2029,
      "å½¼å¥³ãģ¯æľ¬ãĤĴèªŃãģ¿ãģ¾ãģĻ": 2030,
      "å½¼å¥³ãģ¯ãĥªãĥ©ãĥĥãĤ¯ãĤ¹ãģĹãģ¾ãģĻ": 2031,
      "å½¼ãģ¯æľ¬ãĤĴèªŃãģ¿ãģ¾ãģĻ": 2032,
      "å½¼ãģ¯ãĥªãĥ©ãĥĥãĤ¯ãĤ¹ãģĹãģ¾ãģĻ": 2033,
      "oom": 2034,
      "Ġitem": 2035,
      "Ġuntil": 2036,
      "Ġngay": 2037,
      "ãĤĮãģ¦ãģĦãĤĮãģ°": 2038,
      "ĠæİĪæ¥Ń": 2039,
      "Ġmauv": 2040,
      "Ġrá»": 2041,
      "Ġrien": 2042,
      "Ġroom": 2043,
      "Ġhomewor": 2044,
      "áº¡y": 2045,
      "æĹ©ãģı": 2046,
      "Ġrestless": 2047,
      "há»ıe": 2048,
      "ãģ§éģĭåĭķãģĹãģ¾ãģĻ": 2049,
      "ennuie": 2050,
      "ãģıãģŁ": 2051,
      "ainment": 2052,
      "Ġkhá»ıe": 2053,
      "ĠéŁ³æ¥½ãĤĴèģ´": 2054,
      "Ġbá»¥ng": 2055,
      "actions": 2056,
      "Ġsoir": 2057,
      "Ġchat": 2058,
      "Ġcháº¡y": 2059,
      "Ġdesk": 2060,
      "Ġdessert": 2061,
      "Ġçľł": 2062,
      "ä¼ĳé¤ĬãģĹãģ¾ãģĻ": 2063,
      "Ġraining": 2064,
      "cure": 2065,
      "ãĤ¯ãĥĭãĥĥãĤ¯": 2066,
      "Ġalong": 2067,
      "Ġcalm": 2068,
      "Ġenjoy": 2069,
      "¤ĸãģ§éģĭåĭķãģĹãģ¾ãģĻ": 2070,
      "ĠBuá»ķi": 2071,
      "Ġsnows": 2072,
      "Ġweekends": 2073,
      "ãĥ¬ãĤ¹": 2074,
      "ãĤĴæĦŁ": 2075,
      "Ġå¤ķ": 2076,
      "Ġturns": 2077,
      "Ġè²": 2078,
      "Ġèħ¹": 2079,
      "Ġwindows": 2080,
      "çĹħéĻ¢ãģ«è¡Įãģįãģ¾ãģĻ": 2081,
      "Ġláº¡i": 2082,
      "Ġavoid": 2083,
      "Ġcase": 2084,
      "Ġstorms": 2085,
      "Ġstorming": 2086,
      "ãģ¦ãģĦãĤĭæĻĤãģ¯": 2087,
      "Ãªn": 2088,
      "çĿĢãģĦãģŁãĤī": 2089,
      "Ġparap": 2090,
      "ãģįãģªãģĮãĤī": 2091,
      "ĠprÃ©vois": 2092,
      "riÃ©": 2093,
      "ĠæĻĤéĸĵãģĮãģĤãĤĮãģ°": 2094,
      "ĠæĻĤéĸĵãģĮãģªãģĳãĤĮãģ°": 2095,
      "tractions": 2096,
      "ĠstressÃ©": 2097,
      "æĺ¼å¯Ŀ": 2098,
      "æĺ¼é£ŁãĤĴæĬľãģįãģ¾ãģĻ": 2099,
      "ãģĪãģŁãĤī": 2100,
      "ĠrÃ©t": 2101,
      "Ġhá»įp": 2102,
      "ãģĮçµĤãĤıãĤĮãģ°": 2103,
      "ĠæĹ©ãģı": 2104,
      "æļĩ": 2105,
      "ĠcÃ²n": 2106,
      "ä¸Ģç·ĴãģªãĤī": 2107,
      "Ġcount": 2108,
      "ĠviÃªn": 2109,
      "Ġcomfortable": 2110,
      "ĠäºĪç®Ĺ": 2111,
      "ãģĮãģĦãĤĮãģ°": 2112,
      "ertainment": 2113,
      "æ¥ŃãģĹãģ¾ãģĻ": 2114,
      "èµ·ãģį": 2115,
      "ĠfatiguÃ©": 2116,
      "Ġä¸Ģäºº": 2117,
      "Ġdistractions": 2118,
      "ĠæļĩãģªãĤī": 2119,
      "Ġsecure": 2120,
      "è¾¼ãĤĵãģłãĤī": 2121,
      "Ġpayday": 2122,
      "ãĥĶãĤ¯ãĥĭãĥĥãĤ¯": 2123,
      "ĠæĢĴ": 2124,
      "¯ĿåĿĬãģĹãģ¾ãģĻ": 2125,
      "Ġä½Ļè£ķãģĮãģĤãĤĮãģ°": 2126,
      "ĠæĤ²ãģĹ": 2127,
      "®ĭæ¥ŃãģĹãģ¾ãģĻ": 2128,
      "èĸ¬ãĤĴé£²ãģ¿ãģ¾ãģĻ": 2129,
      "ĠÃ©coutant": 2130,
      "ĠãĤ¹ãĥĪãĥ¬ãĤ¹": 2131,
      "ħ¬åľĴãģ«è¡Įãģįãģ¾ãģĻ": 2132,
      "ãĤªãĥķãĤ£ãĤ¹ãģ«ãģĦãģ¾ãģĻ": 2133,
      "Ġlooking": 2134,
      "ĠfÃ©riÃ©": 2135,
      "Ġwait": 2136,
      "Ġentertainment": 2137,
      "ĠSÃ¡ng": 2138,
      "ĠShould": 2139,
      "ĠSunday": 2140,
      "Ġitems": 2141,
      "Ġmauvais": 2142,
      "Ġhomework": 2143,
      "æĹ©ãģıå¯Ŀãģ¾ãģĻ": 2144,
      "ãĤĴæĦŁãģĺãģŁãĤī": 2145,
      "Ġparapluie": 2146,
      "æĺ¼å¯ĿãģĹãģ¾ãģĻ": 2147,
      "ãĥĶãĤ¯ãĥĭãĥĥãĤ¯ãģĹãģ¾ãģĻ": 2148,
      "é£Łãģ¹çī©": 2149,
      "Ġrestent": 2150,
      "å®¶ãģ«ãģĦãĤĭ": 2151,
      "aving": 2152,
      "ĠngÃły": 2153,
      "Ġill": 2154,
      "ĠmangÃ©": 2155,
      "Fir": 2156,
      "Netflix": 2157,
      "amp": 2158,
      "awn": 2159,
      "broke": 2160,
      "chÃ": 2161,
      "ds": 2162,
      "ever": 2163,
      "ell": 2164,
      "eck": 2165,
      "ft": 2166,
      "hau": 2167,
      "ille": 2168,
      "ive": 2169,
      "lu": 2170,
      "lin": 2171,
      "lmed": 2172,
      "nique": 2173,
      "oin": 2174,
      "pt": 2175,
      "pan": 2176,
      "pressed": 2177,
      "ried": 2178,
      "sle": 2179,
      "son": 2180,
      "sit": 2181,
      "ty": 2182,
      "tbroke": 2183,
      "ving": 2184,
      "vÃ©": 2185,
      "whe": 2186,
      "well": 2187,
      "¢ãĤ³": 2188,
      "¥ãģİ": 2189,
      "¨ãĤ": 2190,
      "©nh": 2191,
      "©ãģĭ": 2192,
      "«ng": 2193,
      "°ãĤĬãģ¾ãģĻ": 2194,
      "²a": 2195,
      "³³": 2196,
      "¸©ãģĭ": 2197,
      "¿ãĤ¯": 2198,
      "¿ãĤĴãģ¤ãģĳãģ¾ãģĻ": 2199,
      "Ä©nh": 2200,
      "å¤ĸåĩºãģĹãģ¾ãģĻ": 2201,
      "æĪ": 2202,
      "ç¥Ŀ": 2203,
      "ĠhÃ": 2204,
      "ĠÃ©": 2205,
      "Ġke": 2206,
      "Ġone": 2207,
      "ĠFir": 2208,
      "Ģ¥ãģİ": 2209,
      "ģu": 2210,
      "ħ±æľ": 2211,
      "ĩä»": 2212,
      "īãģĹãģ¾ãģĻ": 2213,
      "īå¼·": 2214,
      "ĬçĿĢ": 2215,
      "Ĳang": 2216,
      "ķª": 2217,
      "ķé£ŁãĤĴé£Łãģ¹ãģ¾ãģĻ": 2218,
      "ĸæĪ": 2219,
      "ĹãĤĬãģ¾ãģĻ": 2220,
      "ĺãģĳãģ¾ãģĻ": 2221,
      "Łi": 2222,
      "Ġtied": 2223,
      "ĠtÄ©nh": 2224,
      "Ġshi": 2225,
      "Ġsav": 2226,
      "Ġsad": 2227,
      "ĠsÆ°á»": 2228,
      "Ġsáº»": 2229,
      "á»ģn": 2230,
      "ãĤ¨ãĤ": 2231,
      "ãĤ¿ãĤ¯": 2232,
      "ĠmÃ¡": 2233,
      "Ġmáº·": 2234,
      "Ġmáº¡ng": 2235,
      "Ġag": 2236,
      "Ġcat": 2237,
      "Ġcáº§n": 2238,
      "Ġdor": 2239,
      "Ġdá»į": 2240,
      "Ġdáº¹p": 2241,
      "Ġdawn": 2242,
      "Ġlone": 2243,
      "ĠlÆ°á»Ľ": 2244,
      "Ġfal": 2245,
      "Ġfreak": 2246,
      "Ġfever": 2247,
      "Ġgrow": 2248,
      "Ġgreat": 2249,
      "Ġby": 2250,
      "ĠbÆ¡i": 2251,
      "ĠbÃ¬nh": 2252,
      "Ġbes": 2253,
      "Ġblu": 2254,
      "Ġwip": 2255,
      "Ġhigh": 2256,
      "Ġhang": 2257,
      "Ġhappy": 2258,
      "Ġhear": 2259,
      "Ġáº¥m": 2260,
      "Ġemp": 2261,
      "ĠÄĲang": 2262,
      "nhappy": 2263,
      "erful": 2264,
      "Ġpai": 2265,
      "Ġpique": 2266,
      "Ġpressed": 2267,
      "Ġpeck": 2268,
      "ĮãģªãĤī": 2269,
      "ĠÄĳiá»": 2270,
      "sted": 2271,
      "ãģĦãģĹãģ¾ãģĻ": 2272,
      "ãģĦé£²ãģ¿çī©": 2273,
      "Ġstar": 2274,
      "Ġstom": 2275,
      "Ġstri": 2276,
      "Ġdead": 2277,
      "Ġdepressed": 2278,
      "ãĤĴçĿĢ": 2279,
      "ieux": 2280,
      "its": 2281,
      "Ġunhappy": 2282,
      "ãģ«ä¹": 2283,
      "Ġleaving": 2284,
      "Ġworn": 2285,
      "Ġworried": 2286,
      "Ġown": 2287,
      "Ġbuil": 2288,
      "áº¡nh": 2289,
      "kes": 2290,
      "Ġfamis": 2291,
      "Ġhaven": 2292,
      "å®¶æĹı": 2293,
      "ained": 2294,
      "ĠLate": 2295,
      "Ġsolo": 2296,
      "unions": 2297,
      "Ġunwell": 2298,
      "Ġextr": 2299,
      "Ġexhau": 2300,
      "ĠEarly": 2301,
      "ĠEvery": 2302,
      "Ġmeets": 2303,
      "Ġmeetings": 2304,
      "ãĥ¼ãģ«ä¹": 2305,
      "Ġdrained": 2306,
      "Ġthing": 2307,
      "ĠthÄĥ": 2308,
      "ĠçĹħéĻ¢": 2309,
      "mir": 2310,
      "å½¼å¥³ãģ¯å¤ĸåĩºãģĹãģ¾ãģĻ": 2311,
      "ãģ¨è©±ãģĹãģ¾ãģĻ": 2312,
      "å½¼ãģ¯å¤ĸåĩºãģĹãģ¾ãģĻ": 2313,
      "ä¸ĬçĿĢ": 2314,
      "Ġsleepy": 2315,
      "çīĩä»": 2316,
      "ãģĬç¥Ŀ": 2317,
      "Ġmangent": 2318,
      "ıĭéģĶãģ¨è©±ãģĹãģ¾ãģĻ": 2319,
      "YouTube": 2320,
      "Ġallows": 2321,
      "ãģĮæ¸": 2322,
      "Ġcheerful": 2323,
      "Ġfini": 2324,
      "Ġnightti": 2325,
      "Ġcompan": 2326,
      "ãĥ©ãĥ³": 2327,
      "ãĥ¬ãĤ¹ãĥĪ": 2328,
      "Ġspir": 2329,
      "Ġspare": 2330,
      "Ġanxi": 2331,
      "Ġarrive": 2332,
      "Ġsunset": 2333,
      "Ġavoir": 2334,
      "ä»ķäºĭãģ«è¡Įãģįãģ¾ãģĻ": 2335,
      "ãģŁãģĦæ°´ãĤĴé£²ãģ¿ãģ¾ãģĻ": 2336,
      "Ġhunger": 2337,
      "Ġposit": 2338,
      "ureux": 2339,
      "Ġparc": 2340,
      "Ġoccupied": 2341,
      "Ġoversle": 2342,
      "Ġoverwhe": 2343,
      "Ġthiá»ģn": 2344,
      "Ġä»ķäºĭãĤĴ": 2345,
      "æĺ¼é£ŁãĤĴé£Łãģ¹ãģ¾ãģĻ": 2346,
      "Ġä¼ĳæĹ¥ãģªãĤī": 2347,
      "Ġä¼ĳãģ¿ãģ®æĹ¥ãģ¯": 2348,
      "èħ¹ãģªãĤī": 2349,
      "ĠrÃ©unions": 2350,
      "Ġholidays": 2351,
      "æļĸæĪ": 2352,
      "Ġbeauti": 2353,
      "Ġswamp": 2354,
      "ãĥ³ãĤĴãģ¤ãģĳãģ¾ãģĻ": 2355,
      "æľĿé£ŁãĤĴé£Łãģ¹ãģ¾ãģĻ": 2356,
      "æľĿé£ŁãĤĴæĬľãģįãģ¾ãģĻ": 2357,
      "Ġpressure": 2358,
      "èĸ¬ãĤĴè": 2359,
      "èµ°ãĤĬãģ¾ãģĻ": 2360,
      "Ġtense": 2361,
      "Ġfatigued": 2362,
      "ãģİãģ«è¡Įãģįãģ¾ãģĻ": 2363,
      "Ġchia": 2364,
      "Ġpoorly": 2365,
      "Ġé£Łãģ¹ãģŁ": 2366,
      "Ġjuice": 2367,
      "ĠÃ¡o": 2368,
      "Ĩ·ãģŁãģĦæ°´ãĤĴé£²ãģ¿ãģ¾ãģĻ": 2369,
      "ãĤ·ãĥ¼ãģ«ä¹": 2370,
      "Ġmá»«ng": 2371,
      "ĠdÃ®ne": 2372,
      "Ġjoyful": 2373,
      "Ġnervous": 2374,
      "NetflixãĤĴè¦ĭãģ¾ãģĻ": 2375,
      "chÃ©": 2376,
      "lines": 2377,
      "tbroken": 2378,
      "¢ãĤ³ãĥ³ãĤĴãģ¤ãģĳãģ¾ãģĻ": 2379,
      "³³ãģİãģ«è¡Įãģįãģ¾ãģĻ": 2380,
      "¸©ãģĭãģĦé£²ãģ¿çī©": 2381,
      "ĠhÃ²a": 2382,
      "Ġkem": 2383,
      "ĠFirst": 2384,
      "Ģ¥ãģİãģ¾ãģĻ": 2385,
      "ħ±æľīãģĹãģ¾ãģĻ": 2386,
      "Ġshift": 2387,
      "Ġsavings": 2388,
      "ĠsÆ°á»Łi": 2389,
      "ãĤ¨ãĤ¢ãĤ³ãĥ³ãĤĴãģ¤ãģĳãģ¾ãģĻ": 2390,
      "ãĤ¿ãĤ¯ãĤ·ãĥ¼ãģ«ä¹": 2391,
      "ĠmÃ¡y": 2392,
      "Ġmáº·c": 2393,
      "Ġcatch": 2394,
      "Ġdormir": 2395,
      "Ġdá»įn": 2396,
      "Ġlonely": 2397,
      "ĠlÆ°á»Ľt": 2398,
      "Ġfalls": 2399,
      "Ġfreaking": 2400,
      "Ġgrowls": 2401,
      "Ġbesoin": 2402,
      "Ġblue": 2403,
      "Ġwiped": 2404,
      "Ġhanging": 2405,
      "Ġheartbroken": 2406,
      "Ġempty": 2407,
      "Ġpaid": 2408,
      "Ġpeckish": 2409,
      "ĠÄĳiá»ģu": 2410,
      "Ġstarving": 2411,
      "Ġstomach": 2412,
      "Ġstrikes": 2413,
      "Ġdeadlines": 2414,
      "ãĤĴçĿĢãģ¾ãģĻ": 2415,
      "Ġbuilds": 2416,
      "Ġfamished": 2417,
      "å®¶æĹıãģ«ä¼ļãģĦãģ¾ãģĻ": 2418,
      "Ġextra": 2419,
      "Ġexhausted": 2420,
      "ĠthÄĥm": 2421,
      "ä¸ĬçĿĢãĤĴçĿĢãģ¾ãģĻ": 2422,
      "çīĩä»ĺãģĳãģ¾ãģĻ": 2423,
      "ãģĬç¥ĿãģĦãģĹãģ¾ãģĻ": 2424,
      "YouTubeãĤĴè¦ĭãģ¾ãģĻ": 2425,
      "Ġnighttime": 2426,
      "Ġcompany": 2427,
      "ãĥ©ãĥ³ãģ«è¡Įãģįãģ¾ãģĻ": 2428,
      "ãĥ¬ãĤ¹ãĥĪãĥ©ãĥ³ãģ«è¡Įãģįãģ¾ãģĻ": 2429,
      "Ġspirits": 2430,
      "Ġanxious": 2431,
      "Ġpositive": 2432,
      "Ġoverslept": 2433,
      "Ġoverwhelmed": 2434,
      "æļĸæĪ¿ãĤĴãģ¤ãģĳãģ¾ãģĻ": 2435,
      "Ġbeautiful": 2436,
      "Ġswamped": 2437,
      "¸©ãģĭãģĦé£²ãģ¿çī©ãĤĴé£²ãģ¿ãģ¾ãģĻ": 2438,
      "ãĤ¿ãĤ¯ãĤ·ãĥ¼ãģ«ä¹ĹãĤĬãģ¾ãģĻ": 2439,
      "Ġchose": 2440,
      "ä»Ĭ": 2441,
      "Ġä¸Ģäººãģ§": 2442,
      "åŃ¦æł¡": 2443,
      "å½¼å¥³ãģ¯éŁ³æ¥½ãĤĴèģ´ãģįãģ¾ãģĻ": 2444,
      "å½¼ãģ¯éŁ³æ¥½ãĤĴèģ´ãģįãģ¾ãģĻ": 2445,
      "Ġåĭ": 2446,
      "ĥįãģĦ": 2447,
      "é£Łãģ¹çī©ãĤĴè²·ãģĨ": 2448,
      "cor": 2449,
      "dant": 2450,
      "if": 2451,
      "ious": 2452,
      "lly": 2453,
      "noy": 2454,
      "op": 2455,
      "oide": 2456,
      "oil": 2457,
      "oáº¡i": 2458,
      "phone": 2459,
      "tard": 2460,
      "ust": 2461,
      "wave": 2462,
      "zing": 2463,
      "¡Į": 2464,
      "§ãģĪ": 2465,
      "¬²": 2466,
      "¯Ģ": 2467,
      "±å": 2468,
      "³ãģĹãģ¾ãģĻ": 2469,
      "´Ħ": 2470,
      "·±å": 2471,
      "¸ãģĹãģ¾ãģĻ": 2472,
      "¼åĲ": 2473,
      "¿é": 2474,
      "æĥ": 2475,
      "çĲ": 2476,
      "çŀ": 2477,
      "ç¯Ģ": 2478,
      "ç´Ħ": 2479,
      "èĲ½ãģ¡": 2480,
      "éĿ": 2481,
      "ĤãģĹ": 2482,
      "ĨãģĹãģ¾ãģĻ": 2483,
      "ĬãĥĥãĤ¯": 2484,
      "İ§ãģĪ": 2485,
      "ĳ¼åĲ": 2486,
      "ĳæĥ": 2487,
      "ĸī": 2488,
      "Ļãģĭ": 2489,
      "Ġtáº¯": 2490,
      "Ġtá»©c": 2491,
      "Ġtáº¡i": 2492,
      "Ġsie": 2493,
      "Ġsort": 2494,
      "Ġscor": 2495,
      "ngry": 2496,
      "Ġangry": 2497,
      "Ġcli": 2498,
      "Ġlose": 2499,
      "Ġgather": 2500,
      "iste": 2501,
      "ĠbÃł": 2502,
      "ĠbÃłi": 2503,
      "Ġboil": 2504,
      "ature": 2505,
      "Ġhead": 2506,
      "Ġrends": 2507,
      "Ġretard": 2508,
      "Ġvest": 2509,
      "Ġváº·t": 2510,
      "ĠÄĳiá»ĩ": 2511,
      "ste": 2512,
      "ching": 2513,
      "å½¼å¥³ãģ¯ä¼ĳãģ¿ãģ¾ãģĻ": 2514,
      "å½¼ãģ¯ä¼ĳãģ¿ãģ¾ãģĻ": 2515,
      "Ġtriste": 2516,
      "arable": 2517,
      "ãģ«ãģĹãģ¾ãģĻ": 2518,
      "Ġmad": 2519,
      "Ġlets": 2520,
      "Ġate": 2521,
      "Ġåĸī": 2522,
      "Ġlao": 2523,
      "Ġlast": 2524,
      "å®¿é": 2525,
      "é£ŁãģĹãģ¾ãģĻ": 2526,
      "Ġfroide": 2527,
      "Ġfrust": 2528,
      "Ġbá»±c": 2529,
      "Ġtigh": 2530,
      "Ġsoif": 2531,
      "Ġunbe": 2532,
      "ated": 2533,
      "Ġdrop": 2534,
      "Ġthoáº¡i": 2535,
      "Ġgiáº£i": 2536,
      "ãĤĴè¦ĭãģ¦ãģĦãĤĭæĻĤ": 2537,
      "å½¼å¥³ãģ¯åĩºåīįãĤĴéł¼ãģ¿ãģ¾ãģĻ": 2538,
      "Ġgets": 2539,
      "ĠæĺłçĶ»": 2540,
      "å½¼ãģ¯åĩºåīįãĤĴéł¼ãģ¿ãģ¾ãģĻ": 2541,
      "è²·ãģĦãģ¾ãģĻ": 2542,
      "Ġplays": 2543,
      "Ġplaying": 2544,
      "Ġregardant": 2545,
      "¤ĸé£ŁãģĹãģ¾ãģĻ": 2546,
      "ãģĮæ¬²": 2547,
      "åĩºåīįãĤĴéł¼ãģ¿ãģ¾ãģĻ": 2548,
      "Ġfinis": 2549,
      "ãĤĴæİ§ãģĪ": 2550,
      "Ġannoy": 2551,
      "è²·ãģĦçī©ãĤĴæİ§ãģĪ": 2552,
      "æľ¬ãĤĴè²·ãģĨ": 2553,
      "Ġfreezing": 2554,
      "Ġheatwave": 2555,
      "çĿĢãģįãģ¾ãģĻ": 2556,
      "rated": 2557,
      "ãĤ¹ãĥĬãĥĥãĤ¯": 2558,
      "ĠdÃ©cident": 2559,
      "ĠãĤĤãģĹ": 2560,
      "Ġfunds": 2561,
      "Ġvisite": 2562,
      "ĠrÃ©ve": 2563,
      "Ġcouche": 2564,
      "ĠpressÃ©": 2565,
      "Ġvisits": 2566,
      "Ġé¢¨ãģĮ": 2567,
      "Ġchilly": 2568,
      "Ġtemperature": 2569,
      "Ġkiá»ĩm": 2570,
      "æĸĻçĲ": 2571,
      "Ġfurious": 2572,
      "Ġirritated": 2573,
      "Ġclasses": 2574,
      "Ġchoses": 2575,
      "phones": 2576,
      "¡ĮãĤĴãģĹãģ¾ãģĻ": 2577,
      "·±åĳ¼åĲ": 2578,
      "çŀĳæĥ": 2579,
      "ç¯Ģç´Ħ": 2580,
      "èĲ½ãģ¡çĿĢãģįãģ¾ãģĻ": 2581,
      "éĿĻãģĭ": 2582,
      "Ġtáº¯t": 2583,
      "Ġsieste": 2584,
      "Ġscorching": 2585,
      "Ġclim": 2586,
      "Ġgathering": 2587,
      "ĠbÃłn": 2588,
      "Ġboiling": 2589,
      "Ġheadphones": 2590,
      "Ġveste": 2591,
      "ĠÄĳiá»ĩn": 2592,
      "å®¿é¡ĮãĤĴãģĹãģ¾ãģĻ": 2593,
      "Ġfrustrated": 2594,
      "Ġtight": 2595,
      "Ġunbearable": 2596,
      "Ġdrops": 2597,
      "ãģĮæ¬²ãģĹãģĳãĤĮãģ°": 2598,
      "Ġannoyed": 2599,
      "è²·ãģĦçī©ãĤĴæİ§ãģĪãģ¾ãģĻ": 2600,
      "ãĤ¹ãĥĬãĥĥãĤ¯ãĤĴé£Łãģ¹ãģ¾ãģĻ": 2601,
      "æĸĻçĲĨãģĹãģ¾ãģĻ": 2602,
      "·±åĳ¼åĲ¸ãģĹãģ¾ãģĻ": 2603,
      "çŀĳæĥ³ãģĹãģ¾ãģĻ": 2604,
      "ç¯Ģç´ĦãģĹãģ¾ãģĻ": 2605,
      "éĿĻãģĭãģ«ãģĹãģ¾ãģĻ": 2606,
      "éĽ¨": 2607,
      "įãģŁãģĦ": 2608,
      "å½¼å¥³ãģ¯ãĥĨãĥ¬ãĥĵãĤĴè¦ĭãģ¾ãģĻ": 2609,
      "å½¼ãģ¯ãĥĨãĥ¬ãĥĵãĤĴè¦ĭãģ¾ãģĻ": 2610,
      "é£Łãģ¹ãģŁãģĦ": 2611,
      "ä½ķãģĭ": 2612,
      "èĸ¬ãĤĴè²·ãģĨ": 2613,
      "éĽ¨ãģªãĤī": 2614,
      "nne": 2615,
      "tud": 2616,
      "ãģĻãĤĭ": 2617,
      "Ġai": 2618,
      "lent": 2619,
      "Ã©tud": 2620,
      "ĠéĽ¨ãģłãģ£ãģŁãĤī": 2621,
      "Ġapprenne": 2622,
      "Ġveulent": 2623,
      "ĠéĽ¨ãģĮéĻįãģ£ãģŁãĤī": 2624,
      "åĲĪ": 2625,
      "Ġjust": 2626,
      "ĠãĤĤãģĹéĽ¨ãģªãĤī": 2627,
      "Ã©tudie": 2628,
      "Ġapprennent": 2629,
      "aise": 2630,
      "bar": 2631,
      "iáº¿t": 2632,
      "rasse": 2633,
      "uff": 2634,
      "voir": 2635,
      "ªĵ": 2636,
      "ªå¤©": 2637,
      "®ãģĹ": 2638,
      "®æĹ¥ãģ¯": 2639,
      "¯ng": 2640,
      "·®ãģĹ": 2641,
      "åĢ": 2642,
      "åºĹ": 2643,
      "å¤ĸåĩºãģĹãģ¾ãģĽãĤĵ": 2644,
      "å·®ãģĹ": 2645,
      "çªĵ": 2646,
      "ĠãģĦ": 2647,
      "ĤãģªãģĳãĤĮãģ°": 2648,
      "ĦãĤĭ": 2649,
      "ĩãĤ¹": 2650,
      "īĭ": 2651,
      "īãĤģ": 2652,
      "ķãĥª": 2653,
      "Ĺi": 2654,
      "ĻãģªãĤī": 2655,
      "ľŁ": 2656,
      "Ġsá»": 2657,
      "Ġchá»ī": 2658,
      "Ġclo": 2659,
      "ĠfÃª": 2660,
      "isir": 2661,
      "Ġbáº£": 2662,
      "Ġbiáº¿t": 2663,
      "Ġhours": 2664,
      "onom": 2665,
      "Ġvont": 2666,
      "ĠÄĳÆ¡": 2667,
      "ãĥĩãĤ¹": 2668,
      "ĠNhá»": 2669,
      "ãģĦå¤©æ°ĹãģªãĤī": 2670,
      "ãģĹãģ¦ãģĦãĤĭæĻĤãģ¯": 2671,
      "Ġstrea": 2672,
      "Ġstuff": 2673,
      "Ġdevoir": 2674,
      "ãĤĴéĸ": 2675,
      "Ġtrong": 2676,
      "ĠThá»": 2677,
      "Ġæīĭ": 2678,
      "Ġoi": 2679,
      "ĠåľŁ": 2680,
      "há»§": 2681,
      "ãģ§é£Łãģ¹ãģ¾ãģĻ": 2682,
      "ãĤĴè²·": 2683,
      "áºŃt": 2684,
      "Ġbá»©c": 2685,
      "Ġdry": 2686,
      "Ã©conom": 2687,
      "Ġthro": 2688,
      "Ġç©ºãģĦãģ¦ãģĦãĤĮãģ°": 2689,
      "ĠCuá»ĳi": 2690,
      "ĠChá»§": 2691,
      "å½¼å¥³ãģ¯å¤ĸåĩºãģĹãģ¾ãģĽãĤĵ": 2692,
      "å½¼ãģ¯å¤ĸåĩºãģĹãģ¾ãģĽãĤĵ": 2693,
      "ĠnháºŃt": 2694,
      "cute": 2695,
      "ãĤ¯ãģ§é£Łãģ¹ãģ¾ãģĻ": 2696,
      "Ġcalme": 2697,
      "ĠéĽ¨ãģ®æĹ¥ãģ¯": 2698,
      "ĠéĽ¨ãģ®æĻĤãģ¯": 2699,
      "ĠdÃ©bar": 2700,
      "ĠãģĬå¤©æ°ĹãģªãĤī": 2701,
      "Ġplaisir": 2702,
      "ĠÄĳÃ³ng": 2703,
      "Ġä½ķãĤ": 2704,
      "Ġä½ķãģĭ": 2705,
      "ĠãĤĦãĤĭ": 2706,
      "Ġãĥķãĥª": 2707,
      "éĢŁãģıè¡Įãģı": 2708,
      "ĠmÃ©dite": 2709,
      "ĠæĤªå¤©": 2710,
      "ãģĮãģĦãģĦæĹ¥ãģ¯": 2711,
      "ĠéĽ¨ãģĮéĻįãĤĮãģ°": 2712,
      "ĠéĽ¨ãģĮéĻįãģ£ãģ¦ãģĦãģŁãĤī": 2713,
      "ĠæĻ´ãĤĮãģŁãĤī": 2714,
      "Ġå¤©æ°ĹãģĮæĤªãģĳãĤĮãģ°": 2715,
      "Ġå¤©æ°ĹãģĮèī¯ãģĳãĤĮãģ°": 2716,
      "Ġå¤©æ°ĹãģĮãģĦãģĦæĹ¥ãģ¯": 2717,
      "ĠéĢĢå±ĪãģªãĤī": 2718,
      "ĠéĢĢå±Īãģłãģ£ãģŁãĤī": 2719,
      "ĠéĢĢå±ĪãģĹãģ¦ãģĦãĤĭæĻĤãģ¯": 2720,
      "ĠæĹ¥æĽľæĹ¥ãģªãĤī": 2721,
      "ĠæĹ¥å·®ãģĹ": 2722,
      "ĠãģĻãĤĭ": 2723,
      "Ġdiscute": 2724,
      "ãģĮç©ºãģĦãģ¦ãģĦãĤĮãģ°": 2725,
      "Ġæļĩãģłãģ£ãģŁãĤī": 2726,
      "ĠæĻ´ãĤĮãģªãĤī": 2727,
      "ĠæĻ´ãĤĮãģ®æĹ¥ãģ¯": 2728,
      "ĠéĢ±æľ«ãģ¯": 2729,
      "ĠéĢ±æľ«ãģªãĤī": 2730,
      "ĠbÃ£o": 2731,
      "ĠãģĬä¼ĳãģ¿ãģ®æĹ¥ãģ¯": 2732,
      "ĠäºĪå®ļãģĮãģªãģĳãĤĮãģ°": 2733,
      "Ġrá»Ĺi": 2734,
      "īå¼·ãģĹãģ¾ãģĻ": 2735,
      "åĢĻãģªãĤī": 2736,
      "çªĵãĤĴéĸ": 2737,
      "ĠãģĦãģĦå¤©æ°ĹãģªãĤī": 2738,
      "īãĤģãģ¾ãģĻ": 2739,
      "Ġsá»ķ": 2740,
      "Ġclock": 2741,
      "ĠfÃªte": 2742,
      "Ġbáº£y": 2743,
      "ĠÄĳÆ¡n": 2744,
      "ãĥĩãĤ¹ãĤ¯ãģ§é£Łãģ¹ãģ¾ãģĻ": 2745,
      "ĠNhá»¯ng": 2746,
      "Ġstreaming": 2747,
      "Ġstuffed": 2748,
      "Ġdevoirs": 2749,
      "ĠThá»©": 2750,
      "ĠæīĭãģĮç©ºãģĦãģ¦ãģĦãĤĮãģ°": 2751,
      "ĠåľŁæĽľæĹ¥ãģªãĤī": 2752,
      "Ã©conomise": 2753,
      "Ġthroat": 2754,
      "ĠdÃ©barrasse": 2755,
      "Ġä½ķãĤĤãģªãģĳãĤĮãģ°": 2756,
      "ĠãĤĦãĤĭãģĵãģ¨ãģĮãģªãģĳãĤĮãģ°": 2757,
      "Ġãĥķãĥªãĥ¼ãģªãĤī": 2758,
      "ĠæĤªå¤©åĢĻãģªãĤī": 2759,
      "ĠæĹ¥å·®ãģĹãģĮãģĤãĤĮãģ°": 2760,
      "ĠãģĻãĤĭãģĵãģ¨ãģĮãģªãģĳãĤĮãģ°": 2761,
      "çªĵãĤĴéĸīãĤģãģ¾ãģĻ": 2762,
      "¤ķé£ŁãĤĴé£Łãģ¹ãģ¾ãģĻ": 2763,
      "ĠhÃ´": 2764,
      "Ķé£": 2765,
      "è¡ĮãģįãģŁãģĦ": 2766,
      "é£Łãģ¹ãģŁ": 2767,
      "¯Ŀãģ¾ãģĻ": 2768,
      "çĹħéĻ¢ãģ«ãģĦãĤĭ": 2769,
      "çĹħéĻ¢ãģ«è¡Įãģı": 2770,
      "ä¼ļç¤¾ãģ§åĥįãģı": 2771,
      "ä¸Ģäººãģ§é£Łãģ¹ãĤĭ": 2772,
      "ä¸Ģäººãģ§è¡Įãģı": 2773,
      "éĢŁãģıãģĦãĤĭ": 2774,
      "ãĤĨãģ£ãģıãĤĬé£Łãģ¹ãĤĭ": 2775,
      "ĠçĹħéĻ¢ãģ§": 2776,
      "ĠhÃ´m": 2777,
      "Ķé£¯": 2778,
      "·åĲĪ": 2779,
      "èª¿": 2780,
      "ħ·åĲĪ": 2781,
      "ĵèª¿": 2782,
      "ãĤĤ": 2783,
      "å½¼å¥³ãģ¯ä»ķäºĭãģĹãģ¾ãģĻ": 2784,
      "å½¼å¥³ãģ¯æĹħè¡ĮãģĹãģ¾ãģĻ": 2785,
      "å½¼ãģ¯ä»ķäºĭãģĹãģ¾ãģĻ": 2786,
      "å½¼ãģ¯æĹħè¡ĮãģĹãģ¾ãģĻ": 2787,
      "Ġåħ·åĲĪ": 2788,
      "ä¼ļãģĪ": 2789,
      "Ġä½ĵèª¿": 2790,
      "Ġä¼ĳãģ¿": 2791,
      "ĠçĹħæ°Ĺ": 2792,
      "ĠãģĶé£¯": 2793,
      "ä¼ļç¤¾ãģ«è¡Įãģı": 2794,
      "Ġå½¼ãģ¯åŃ¦æł¡ãģ§": 2795,
      "Ġåħ·åĲĪãģĮæĤªãģĳãĤĮãģ°": 2796,
      "Ġä½ĵèª¿ãģĮæĤªãģĳãĤĮãģ°": 2797,
      "Xong": 2798,
      "am": 2799,
      "cher": 2800,
      "di": 2801,
      "gou": 2802,
      "hu": 2803,
      "iÃ¨": 2804,
      "mme": 2805,
      "nque": 2806,
      "oeu": 2807,
      "pu": 2808,
      "rant": 2809,
      "soeu": 2810,
      "tt": 2811,
      "tres": 2812,
      "uchÃ©": 2813,
      "vrÃ©": 2814,
      "xieux": 2815,
      "yens": 2816,
      "zy": 2817,
      "¢ãģĪãģŁãĤī": 2818,
      "£ä¼ĳ": 2819,
      "¤ãģĹãģŁãĤī": 2820,
      "¥½": 2821,
      "¥ãģĦ": 2822,
      "¥ãģŁãĤī": 2823,
      "¦ļ": 2824,
      "¦æĸĻ": 2825,
      "§ä¹": 2826,
      "¨äºĭ": 2827,
      "©p": 2828,
      "©Ł": 2829,
      "©ng": 2830,
      "ª°": 2831,
      "ª²": 2832,
      "ªãĤĴ": 2833,
      "ªãģĦæĻĤãģ¯": 2834,
      "«ĭ": 2835,
      "«ãģ¤": 2836,
      "«ĮãģªãĤī": 2837,
      "¬±": 2838,
      "¬ī": 2839,
      "¬ł": 2840,
      "¬ãĤĬ": 2841,
      "®ãĤĮãģŁãĤī": 2842,
      "®ãģĮè": 2843,
      "¯éĩĳ": 2844,
      "±ãģĮãģĤãĤĮãģ°": 2845,
      "²Ī": 2846,
      "²ãģĦãģŁãĤī": 2847,
      "²ãĤĴèģ´": 2848,
      "³ng": 2849,
      "´ãģĹãģ¦ãģĦãĤĮãģ°": 2850,
      "µ·ãģį": 2851,
      "µãģĹãģ¦ãģĦãĤĮãģ°": 2852,
      "µ¦æĸĻ": 2853,
      "·Ĭ": 2854,
      "·æľ": 2855,
      "¸ãģĽ": 2856,
      "¹ãģªãĤī": 2857,
      "¹¸ãģĽ": 2858,
      "»ãģĹãģŁãĤī": 2859,
      "¼é£Łå¾Į": 2860,
      "½ãĤı": 2861,
      "¾è": 2862,
      "¾Ľ": 2863,
      "¿½ãĤı": 2864,
      "Å©ng": 2865,
      "åĬ": 2866,
      "åŃ": 2867,
      "å«ĮãģªãĤī": 2868,
      "æ©Ł": 2869,
      "æ¬ł": 2870,
      "è¿½ãĤı": 2871,
      "éĤ": 2872,
      "éħ": 2873,
      "éĽ": 2874,
      "é¬±": 2875,
      "Ġé£": 2876,
      "Ġé£Ł": 2877,
      "ĠÃ¢": 2878,
      "Ġä¼ļç¤¾ãģ§": 2879,
      "Ġé£Łå¾Į": 2880,
      "ĠãģıãģŁ": 2881,
      "ĠXong": 2882,
      "Ĥn": 2883,
      "Ĥé¬±": 2884,
      "ĥéħ": 2885,
      "ħãģı": 2886,
      "ħå¾Į": 2887,
      "Ĩãģ¾ãģ£ãģŁãĤī": 2888,
      "Ĩ±ãģĮãģĤãĤĮãģ°": 2889,
      "ĨĤé¬±": 2890,
      "īãĤ": 2891,
      "īãģªãĤī": 2892,
      "ĬãģĹãģŁãĤī": 2893,
      "Ĭæ©Ł": 2894,
      "ĭæł¡": 2895,
      "ĭ¬ãĤĬ": 2896,
      "ĮĽ": 2897,
      "įãģªãĤī": 2898,
      "įå®": 2899,
      "İãģ": 2900,
      "ıi": 2901,
      "ıĸ": 2902,
      "ıãģªãĤī": 2903,
      "ıãĥĥ": 2904,
      "ĲãģĮæĤªãģĳãĤĮãģ°": 2905,
      "ĳãģªãĤī": 2906,
      "ĶãģĽ": 2907,
      "Ķ¨äºĭ": 2908,
      "Ķ¾è": 2909,
      "ķ·æľ": 2910,
      "Ĺãĥ¬": 2911,
      "Ĺãģıãģªãģ£ãģŁãĤī": 2912,
      "Ļãģĳ": 2913,
      "Ļãģ£ãģŁãĤī": 2914,
      "ļãĤ³": 2915,
      "ļ®ãĤĮãģŁãĤī": 2916,
      "Ľãģ£ãģŁãĤī": 2917,
      "Ľãĥ³": 2918,
      "Ľ®ãģĮè": 2919,
      "Ľ²ãĤĴèģ´": 2920,
      "Ŀãĥĥ": 2921,
      "Ŀ¥ãģŁãĤī": 2922,
      "Łä¼ĳ": 2923,
      "Łãģ¾ãģ£ãģŁãĤī": 2924,
      "łŃ": 2925,
      "łãĤ": 2926,
      "Ńãĥ£": 2927,
      "ãģ¸ãģ¨": 2928,
      "ãģ²ãģĦãģŁãĤī": 2929,
      "Ġsan": 2930,
      "Ġsame": 2931,
      "Ġsont": 2932,
      "Ġsá»ĳt": 2933,
      "Ġsous": 2934,
      "Ġsais": 2935,
      "á»³": 2936,
      "á»ĥ": 2937,
      "áº³ng": 2938,
      "ãĤ¤ãĥ©": 2939,
      "ngÃ©": 2940,
      "Ġcon": 2941,
      "Ġchá»": 2942,
      "Ġcáº¡n": 2943,
      "Ġcáº£": 2944,
      "ĠcÄĥ": 2945,
      "ĠcÅ©ng": 2946,
      "ĠdÆ°": 2947,
      "Ġdim": 2948,
      "ĠlÆ°": 2949,
      "Ġláº¯ng": 2950,
      "Ġfen": 2951,
      "Ġferme": 2952,
      "ĠfiÃ¨": 2953,
      "Ġgáº¥": 2954,
      "Ġgar": 2955,
      "isÃ©": 2956,
      "Ġban": 2957,
      "ĠbÃ¨": 2958,
      "Ġbree": 2959,
      "Ġblows": 2960,
      "Ġháº¡nh": 2961,
      "attr": 2962,
      "áº¥y": 2963,
      "Ġheureux": 2964,
      "Ġnáº£": 2965,
      "ĠnÃło": 2966,
      "ĠÄĤn": 2967,
      "Ġpeux": 2968,
      "Ġperme": 2969,
      "meur": 2970,
      "ãĤīå¸°": 2971,
      "Ġretr": 2972,
      "ouve": 2973,
      "ĠÄĳÃ£": 2974,
      "ĠÄĳuá»ĳi": 2975,
      "ãĥīãĤ": 2976,
      "ãĥļãĤ³": 2977,
      "ãģĦãģªãģĳãĤĮãģ°": 2978,
      "ãģĹãģ¦ãģĦãĤĭæĻĤ": 2979,
      "Ġstrong": 2980,
      "ãĤĴãģĹãģ¦ãģĦãĤĭæĻĤ": 2981,
      "å½¼å¥³ãģ¯å®¶ãģ«å¸°ãĤĬãģ¾ãģĻ": 2982,
      "å½¼ãģ¯å®¶ãģ«å¸°ãĤĬãģ¾ãģĻ": 2983,
      "ĠTan": 2984,
      "ĠTá»ĳi": 2985,
      "ĠTard": 2986,
      "ient": 2987,
      "Ġuá»ĥ": 2988,
      "ãģ«ãģªãģ£ãģŁãĤī": 2989,
      "ãģ«ãģį": 2990,
      "ãģ«çĿĢãģĦãģŁãĤī": 2991,
      "ãģ«è¿½ãĤı": 2992,
      "ĠngÆ°": 2993,
      "ĠnghÃ¨": 2994,
      "Ġæ¥½": 2995,
      "ĠæĨĤé¬±": 2996,
      "ĠæĶ¾è": 2997,
      "ĠæĽ²ãĤĴèģ´": 2998,
      "Ġmanque": 2999,
      "ãģŁãģĳãĤĮãģ°": 3000,
      "Ġoáº£i": 3001,
      "ĠAvec": 3002,
      "Ġrá»Ļn": 3003,
      "Ġrhu": 3004,
      "Ġsum": 3005,
      "urs": 3006,
      "ffrant": 3007,
      "Ġåıĭ": 3008,
      "Ġå¸°": 3009,
      "Ġå¯ĿåĿ": 3010,
      "ĠåĨ·": 3011,
      "Ġå¬ī": 3012,
      "Ġå¹¸ãģĽ": 3013,
      "Ġåıĸ": 3014,
      "Ġmeurs": 3015,
      "ĠfauchÃ©": 3016,
      "å®ħå¾Į": 3017,
      "ĠcongÃ©": 3018,
      "ãģ§ãģĦãĤĮãģ°": 3019,
      "ãģ¿ãģªãĤī": 3020,
      "ãģ¿ä¸ŃãģªãĤī": 3021,
      "ãĤĭæĻĤãģ¯": 3022,
      "ãģĮä½": 3023,
      "ãģĮéĽ": 3024,
      "Ġká»ĭp": 3025,
      "Ġká»³": 3026,
      "Ġéĩĳ": 3027,
      "Ġéķ·æľ": 3028,
      "ĠéłŃ": 3029,
      "ĠLa": 3030,
      "ĠLors": 3031,
      "Ġbá»ĵn": 3032,
      "ãģĮãģªãģĦæĻĤãģ¯": 3033,
      "ãģĮãģĻãģĳ": 3034,
      "ãģĮãģŁãģ¾ãģ£ãģŁãĤī": 3035,
      "ĠDá»ĭp": 3036,
      "Ġsomme": 3037,
      "ĠchÆ°a": 3038,
      "ãĥ¼ãģĮãģĤãĤĮãģ°": 3039,
      "éģħãģı": 3040,
      "éģİãģ": 3041,
      "anche": 3042,
      "tent": 3043,
      "ĠÄĳá»§": 3044,
      "Ġtháº³ng": 3045,
      "Ġtháº¥y": 3046,
      "Æ¡ng": 3047,
      "Ġç©º": 3048,
      "Ġç¥Ŀ": 3049,
      "Ġçµ¦æĸĻ": 3050,
      "Ġç·Ĭ": 3051,
      "ĠçĨ±ãģĮãģĤãĤĮãģ°": 3052,
      "Ġçĭ¬ãĤĬ": 3053,
      "ĠçĮĽ": 3054,
      "ĠçĶ¨äºĭ": 3055,
      "ĠçĽ®ãģĮè": 3056,
      "Ġmoyens": 3057,
      "ĠphÃºc": 3058,
      "ĠphÃ©p": 3059,
      "ãģĦãĤĭæĻĤãģ¯": 3060,
      "å½¼å¥³ãģ¯å¯ĿåĿĬãģĹãģ¾ãģĻ": 3061,
      "ãģ¨ãģĦãĤĭæĻĤãģ¯": 3062,
      "Ġæĺ¼é£Łå¾Į": 3063,
      "Ġthá»©c": 3064,
      "å½¼ãģ¯å¯ĿåĿĬãģĹãģ¾ãģĻ": 3065,
      "Ġquoi": 3066,
      "ige": 3067,
      "äºĭãģĮçµĤãĤıãģ£ãģŁãĤī": 3068,
      "æĺİæĹ¥": 3069,
      "ãģĮãģĤãĤĭæĻĤãģ¯": 3070,
      "ãĤĬè¾¼": 3071,
      "ãĤĬãĤĴæĦŁãģĺãģŁãĤī": 3072,
      "ãĥĥãĤ·": 3073,
      "åĭ¤ãģĹãģŁãĤī": 3074,
      "ãģĮæ²Ī": 3075,
      "ãģĮæļ®ãĤĮãģŁãĤī": 3076,
      "ãģĮæĿ¥ãģŁãĤī": 3077,
      "ĠdÃ©soeu": 3078,
      "äººãģ¨ãģĦãĤĭæĻĤãģ¯": 3079,
      "ĠæļĹãģıãģªãģ£ãģŁãĤī": 3080,
      "Ġrepas": 3081,
      "ãģĭãĤīå¸°": 3082,
      "Ġboisson": 3083,
      "Ġhumeur": 3084,
      "ĠèĲ½ãģ¡": 3085,
      "Ġèª¿": 3086,
      "Ġèª°": 3087,
      "Ġèµ·ãģį": 3088,
      "Ġè¾Ľ": 3089,
      "ĠéĢ£ä¼ĳ": 3090,
      "ãĤģãģŁãĤī": 3091,
      "ãĤģãģ«çĿĢãģĦãģŁãĤī": 3092,
      "Ġanxieux": 3093,
      "ãĤĴèģ´ãģĦãģ¦ãģĦãĤĭæĻĤ": 3094,
      "rÃ©able": 3095,
      "omac": 3096,
      "Ġlá»±c": 3097,
      "Ġå¿ĥéħ": 3098,
      "çµĤãģĪãģŁãĤī": 3099,
      "Ġestomac": 3100,
      "Ãªtres": 3101,
      "Ġneige": 3102,
      "çµĤãĤıãĤĮãģ°": 3103,
      "çµĤãĤıãģ£ãģŁãĤī": 3104,
      "Ġä¸Ĭæ©Ł": 3105,
      "Ġä¸ĭæł¡": 3106,
      "Ġä¸įå®": 3107,
      "Ġthiáº¿u": 3108,
      "Ġä»ķäºĭãģĮãģĤãĤĮãģ°": 3109,
      "Ġä»ķäºĭãģ®å¾Į": 3110,
      "Ġä»ķäºĭãģĮçµĤãĤıãģ£ãģŁãĤī": 3111,
      "Ġä»ķäºĭãģĮçµĤãĤıãĤĮãģ°": 3112,
      "ä¸Ģäººãģ§åĥįãģı": 3113,
      "ĠãĤ¤ãĥ": 3114,
      "ĠãĤ¤ãĥ©": 3115,
      "Ġãĥıãĥĥ": 3116,
      "ĠãĥĹãĥ¬": 3117,
      "ĠãĥĿãĥĥ": 3118,
      "ĠãĥłãĤ": 3119,
      "Ġå¯ĴãģĳãĤĮãģ°": 3120,
      "Ġå¯Ĵãģıãģªãģ£ãģŁãĤī": 3121,
      "Ġå¯ĴãģĦæĻĤãģ¯": 3122,
      "Ġå¯ĴãģĦãģªãĤī": 3123,
      "Ġå¯ĴãģĦæĹ¥ãģ¯": 3124,
      "Ġå¯Ĵãģĭãģ£ãģŁãĤī": 3125,
      "ĠæļĳãģĳãĤĮãģ°": 3126,
      "Ġæļĳãģıãģªãģ£ãģŁãĤī": 3127,
      "ĠæļĳãģĦæĻĤãģ¯": 3128,
      "ĠæļĳãģĦãģªãĤī": 3129,
      "ĠæļĳãģĦæĹ¥ãģ¯": 3130,
      "Ġæļĳãģĭãģ£ãģŁãĤī": 3131,
      "ĠæĻĤéĸĵãģ«è¿½ãĤı": 3132,
      "ĠæĻĤéĸĵãģĮä½": 3133,
      "ape": 3134,
      "ä¸Ģçķª": 3135,
      "å¯ĿåĿ": 3136,
      "Ġä¼ĳæļĩ": 3137,
      "ãģĪè¾¼ãĤĵãģłãĤī": 3138,
      "åĪ»ãģĹãģŁãĤī": 3139,
      "ĠåıĭéģĶãģĮãģĦãĤĮãģ°": 3140,
      "ĠåıĭéģĶãģĮæĿ¥ãģŁãĤī": 3141,
      "ĠæĹ©æľĿ": 3142,
      "ĠæĹ©èµ·ãģį": 3143,
      "ĠæĹ©ãĤģãģ«çĿĢãģĦãģŁãĤī": 3144,
      "Ġå®¶æĹıãģĮãģĦãĤĮãģ°": 3145,
      "Ġå®¶æĹıãģĮéĽ": 3146,
      "æļĳãģªãĤī": 3147,
      "Ġsouffrant": 3148,
      "ĠéĢĢåĭ¤ãģĹãģŁãĤī": 3149,
      "ãĤ¹ãĥĪãĤĴèģ´ãģĦãģ¦ãģĦãĤĭæĻĤ": 3150,
      "©ºãģĦãģŁãĤī": 3151,
      "Ġcoucher": 3152,
      "ĠprÃ©voient": 3153,
      "Ġaffam": 3154,
      "Ġpression": 3155,
      "ãģĮãģĦãģĦæĻĤãģ¯": 3156,
      "Ġé¢¨éĤ": 3157,
      "ĠãģĬéĩĳãģĮãģĤãĤĮãģ°": 3158,
      "ĠãģĬéĩĳãģĮãģªãģĳãĤĮãģ°": 3159,
      "ĠãģĬéĩĳãģĮãģªãģĦæĻĤãģ¯": 3160,
      "ĠãģĬéĩĳãģĮãģĤãĤĭæĻĤãģ¯": 3161,
      "Ġå¤ľãģ¯": 3162,
      "Ġå¤ľãģªãĤī": 3163,
      "Ġå¤ľãģ«ãģªãģ£ãģŁãĤī": 3164,
      "Ġå¤ľéģħãģı": 3165,
      "ĠæľĿãģ¯": 3166,
      "ĠæľĿãģªãĤī": 3167,
      "ĠæľĿèµ·ãģį": 3168,
      "ĠæľĿä¸Ģçķª": 3169,
      "Ġæ°ĹåĪĨãģĮæĤªãģĳãĤĮãģ°": 3170,
      "Ġæ°ĹåĪĨãģĮèī¯ãģĳãĤĮãģ°": 3171,
      "Ġæ°ĹåĪĨãģĮæ²Ī": 3172,
      "Ġæ°ĹåĪĨãģĮãģĦãģĦæĻĤãģ¯": 3173,
      "çĹħéĻ¢ãģ§ä¼ļãģĨ": 3174,
      "ĠãģĬèħ¹ãģĮç": 3175,
      "ĠãģĬèħ¹ãģĮæ¸": 3176,
      "ĠãģĬèħ¹ãģĮãģĻãģĳ": 3177,
      "å¼µãģĹãģ¦ãģĦãĤĮãģ°": 3178,
      "æĸ¹ãģªãĤī": 3179,
      "é£²ãģ¿çī©ãĤĴè²·": 3180,
      "ĠæĹ¥ãģĮæļ®ãĤĮãģŁãĤī": 3181,
      "Ġãģ¸ãģ¨": 3182,
      "ãģĮç«ĭ": 3183,
      "Ġé£Łãģ¹çµĤãĤıãģ£ãģŁãĤī": 3184,
      "Ġsec": 3185,
      "ĠpayÃ©": 3186,
      "ãĥĶãĥ¼ãģªãĤī": 3187,
      "ĠæĢ¥ãģĦ": 3188,
      "Ġéģħãģıãģªãģ£ãģŁãĤī": 3189,
      "ĠéģħãĤĮãģŁãĤī": 3190,
      "ĠéģħåĪ»ãģĹãģŁãĤī": 3191,
      "Ġçĸ²ãĤĮãģŁãĤī": 3192,
      "Ġçĸ²ãĤĮãģ¦ãģĦãĤĮãģ°": 3193,
      "Ġçĸ²åĬ": 3194,
      "Ġä½Ļè£ķãģĮãģªãģĳãĤĮãģ°": 3195,
      "ĠåıĭéģĶãģ¨ãģĦãĤĮãģ°": 3196,
      "ĠåıĭéģĶãģ¨ä¸Ģç·ĴãģªãĤī": 3197,
      "ĠåıĭéģĶãģ¨ä¼ļãģĪ": 3198,
      "Ġå®¶æĹıãģ¨ãģĦãĤĮãģ°": 3199,
      "Ġå®¶æĹıãģ¨ä¸Ģç·ĴãģªãĤī": 3200,
      "Ġå®¶æĹıãģ¨éģİãģ": 3201,
      "ĠæĤ²ãģĹãģĳãĤĮãģ°": 3202,
      "ĠÃ¡p": 3203,
      "Ġmá»ıi": 3204,
      "ĠdÃ®ner": 3205,
      "Ġjoyeux": 3206,
      "Ġnerveux": 3207,
      "ĠåŃ¦æł¡ãģĮçµĤãĤıãģ£ãģŁãĤī": 3208,
      "ĠåŃ¦æł¡ãģĭãĤīå¸°": 3209,
      "Ġkiá»ĩt": 3210,
      "ĠãģĬä¼ĳãģ¿ãģªãĤī": 3211,
      "ĠäºĪå®ļãģĮãģĤãĤĮãģ°": 3212,
      "Ġå¿ĻãģĹãģĦæĻĤãģ¯": 3213,
      "Ġå¿ĻãģĹãģĦãģªãĤī": 3214,
      "¤ãĥĽãĥ³": 3215,
      "Ġcreux": 3216,
      "ĠcrevÃ©": 3217,
      "Ġbonne": 3218,
      "ãĥ£ãĥ¼ãģĮãģĤãĤĮãģ°": 3219,
      "ĠæİĪæ¥Ńãģ®å¾Į": 3220,
      "ĠæİĪæ¥ŃãģĮçµĤãĤıãĤĮãģ°": 3221,
      "ãģıãģŁãģªãĤī": 3222,
      "ĠéŁ³æ¥½ãĤĴèģ´ãģĦãģ¦ãģĦãĤĭæĻĤ": 3223,
      "ĠéŁ³æ¥½ãĤĴèģ´ãģįãģªãģĮãĤī": 3224,
      "Ġçľłãģıãģªãģ£ãģŁãĤī": 3225,
      "Ġçľłãģĭãģ£ãģŁãĤī": 3226,
      "Ġå¤ķé£Łå¾Į": 3227,
      "Ġå¤ķæĸ¹ãģªãĤī": 3228,
      "Ġè²§ä¹": 3229,
      "Ġè²¯éĩĳ": 3230,
      "Ġèħ¹ãĥļãĤ³": 3231,
      "Ġèħ¹ãģĮç«ĭ": 3232,
      "ĠæĹ©ãģıçĿĢãģĦãģŁãĤī": 3233,
      "ĠæĹ©ãģıçµĤãĤıãĤĮãģ°": 3234,
      "æļĩãģªãĤī": 3235,
      "ĠäºĪç®ĹãģĮãģĤãĤĮãģ°": 3236,
      "ĠäºĪç®ĹãģĮãģªãģĳãĤĮãģ°": 3237,
      "Ġä¸ĢäººãģªãĤī": 3238,
      "Ġä¸Ģäººãģ®æĻĤãģ¯": 3239,
      "ĠæĢĴãģ£ãģ¦ãģĦãģŁãĤī": 3240,
      "ĠæĢĴãĤĬãĤĴæĦŁãģĺãģŁãĤī": 3241,
      "ĠæĤ²ãģĹãģıãģªãģ£ãģŁãĤī": 3242,
      "ĠæĤ²ãģĹãģĦæĻĤãģ¯": 3243,
      "ĠãĤ¹ãĥĪãĥ¬ãĤ¹ãĤĴæĦŁãģĺãģŁãĤī": 3244,
      "ĠãĤ¹ãĥĪãĥ¬ãĤ¹ãģĮãģŁãģ¾ãģ£ãģŁãĤī": 3245,
      "ĠfÃ©riÃ©s": 3246,
      "ĠÃ©pu": 3247,
      "ĠagrÃ©able": 3248,
      "Ġä»ķäºĭãĤĴçµĤãģĪãģŁãĤī": 3249,
      "Ġé£Łãģ¹ãģŁå¾Į": 3250,
      "Ġä¸Ģäººãģ§ãģĦãĤĮãģ°": 3251,
      "Ġä½ķãģĭé£Łãģ¹ãģŁ": 3252,
      "ãĤĤãģĦãģªãģĳãĤĮãģ°": 3253,
      "Ġä¼ĳãģ¿ãģŁãģĳãĤĮãģ°": 3254,
      "ĠçĹħæ°Ĺãģ®æĻĤãģ¯": 3255,
      "ĠãģĶé£¯ãģ®å¾Į": 3256,
      "gouille": 3257,
      "ttre": 3258,
      "¦ļãĤģãģŁãĤī": 3259,
      "ª²å¾Į": 3260,
      "ªãĤĴãģ²ãģĦãģŁãĤī": 3261,
      "«ãģ¤ãģĦãģŁãĤī": 3262,
      "åŃĲãģĮæĤªãģĳãĤĮãģ°": 3263,
      "æ¬łãģªãĤī": 3264,
      "Ġé£¢ãģĪãģŁãĤī": 3265,
      "Ġé£ŁäºĭãģĮçµĤãĤıãģ£ãģŁãĤī": 3266,
      "ĠÃ¢u": 3267,
      "ĠãģıãģŁãģıãģŁãģªãĤī": 3268,
      "ĶãģĽãģ°": 3269,
      "Łä¼ĳæļĩãģªãĤī": 3270,
      "Ńãĥ£ãĤ¹ãĥĪãĤĴèģ´ãģĦãģ¦ãģĦãĤĭæĻĤ": 3271,
      "ãģ¸ãģ¨ãģªãĤī": 3272,
      "Ġsans": 3273,
      "Ġsamedi": 3274,
      "ãĤ¤ãĥ©ãģĹãģŁãĤī": 3275,
      "Ġcontent": 3276,
      "Ġchá»ĵn": 3277,
      "Ġcáº£m": 3278,
      "ĠcÄĥng": 3279,
      "Ġdimanche": 3280,
      "ĠlÆ°Æ¡ng": 3281,
      "ĠfenÃªtres": 3282,
      "ĠfiÃ¨vre": 3283,
      "Ġgáº¥p": 3284,
      "Ġgargouille": 3285,
      "Ġbreezy": 3286,
      "attrape": 3287,
      "Ġnáº£n": 3288,
      "Ġpermettre": 3289,
      "Ġretrouve": 3290,
      "ãĥīãĤŃãĥ£ãĤ¹ãĥĪãĤĴèģ´ãģĦãģ¦ãģĦãĤĭæĻĤ": 3291,
      "ãģ«ãģįãģŁãĤī": 3292,
      "ĠngÆ°á»Ŀi": 3293,
      "ĠnghÃ¨o": 3294,
      "Ġæ¥½ãģĹãģĳãĤĮãģ°": 3295,
      "ĠæĨĤé¬±ãģªãĤī": 3296,
      "ĠæĶ¾èª²å¾Į": 3297,
      "ĠæĽ²ãĤĴèģ´ãģįãģªãģĮãĤī": 3298,
      "Ġrhume": 3299,
      "Ġåıĭäººãģ¨ãģĦãĤĭæĻĤãģ¯": 3300,
      "Ġå¸°å®ħå¾Į": 3301,
      "Ġå¯ĿåĿĬãģĹãģŁãĤī": 3302,
      "ĠåĨ·ãģĪè¾¼ãĤĵãģłãĤī": 3303,
      "Ġå¬īãģĹãģĳãĤĮãģ°": 3304,
      "Ġå¹¸ãģĽãģªãĤī": 3305,
      "ĠåıĸãĤĬè¾¼": 3306,
      "Ġéĩĳæ¬łãģªãĤī": 3307,
      "Ġéķ·æľŁä¼ĳæļĩãģªãĤī": 3308,
      "ĠéłŃãģ«ãģįãģŁãĤī": 3309,
      "Ġsommeil": 3310,
      "Ġç©ºèħ¹ãģªãĤī": 3311,
      "Ġç¥ĿæĹ¥ãģªãĤī": 3312,
      "Ġçµ¦æĸĻæĹ¥ãģªãĤī": 3313,
      "Ġç·Ĭå¼µãģĹãģ¦ãģĦãĤĮãģ°": 3314,
      "Ġçĭ¬ãĤĬãģªãĤī": 3315,
      "ĠçĮĽæļĳãģªãĤī": 3316,
      "ĠçĶ¨äºĭãģĮãģĤãĤĮãģ°": 3317,
      "ĠçĽ®ãģĮè¦ļãĤģãģŁãĤī": 3318,
      "ãĥĥãĤ·ãĥ£ãĥ¼ãģĮãģĤãĤĮãģ°": 3319,
      "ĠdÃ©soeuvrÃ©": 3320,
      "ĠèĲ½ãģ¡è¾¼ãĤĵãģłãĤī": 3321,
      "Ġèª¿åŃĲãģĮæĤªãģĳãĤĮãģ°": 3322,
      "Ġèª°ãĤĤãģĦãģªãģĳãĤĮãģ°": 3323,
      "Ġèµ·ãģįãģŁãĤī": 3324,
      "Ġè¾ĽãģĳãĤĮãģ°": 3325,
      "ĠéĢ£ä¼ĳãģªãĤī": 3326,
      "Ġå¿ĥéħįãģªãĤī": 3327,
      "Ġä¸Ĭæ©Łå«ĮãģªãĤī": 3328,
      "Ġä¸ĭæł¡å¾Į": 3329,
      "Ġä¸įå®īãģªãĤī": 3330,
      "ĠãĤ¤ãĥ¤ãĥĽãĥ³": 3331,
      "ĠãĤ¤ãĥ©ãĤ¤ãĥ©ãģĹãģŁãĤī": 3332,
      "ĠãĥıãĥĥãĥĶãĥ¼ãģªãĤī": 3333,
      "ĠãĥĹãĥ¬ãĥĥãĤ·ãĥ£ãĥ¼ãģĮãģĤãĤĮãģ°": 3334,
      "ĠãĥĿãĥĥãĥīãĤŃãĥ£ãĤ¹ãĥĪãĤĴèģ´ãģĦãģ¦ãģĦãĤĭæĻĤ": 3335,
      "ĠãĥłãĤ«ãģ¤ãģĦãģŁãĤī": 3336,
      "ĠæĻĤéĸĵãģ«è¿½ãĤıãĤĮãģ¦ãģĦãĤĮãģ°": 3337,
      "ĠæĻĤéĸĵãģĮä½Ļãģ£ãģŁãĤī": 3338,
      "å¯ĿåĿĬãģĹãģ¾ãģĻ": 3339,
      "Ġä¼ĳæļĩä¸ŃãģªãĤī": 3340,
      "ĠæĹ©æľĿãģªãĤī": 3341,
      "ĠæĹ©èµ·ãģįãģĹãģŁãĤī": 3342,
      "Ġå®¶æĹıãģĮéĽĨãģ¾ãģ£ãģŁãĤī": 3343,
      "ĠaffamÃ©": 3344,
      "Ġé¢¨éĤªãĤĴãģ²ãģĦãģŁãĤī": 3345,
      "Ġå¤ľéģħãģıãģªãĤī": 3346,
      "ĠæľĿèµ·ãģįãģŁãĤī": 3347,
      "ĠæľĿä¸Ģçķªãģ«": 3348,
      "Ġæ°ĹåĪĨãģĮæ²ĪãĤĵãģłãĤī": 3349,
      "ĠãģĬèħ¹ãģĮç©ºãģĦãģŁãĤī": 3350,
      "ĠãģĬèħ¹ãģĮæ¸Ľãģ£ãģŁãĤī": 3351,
      "ĠãģĬèħ¹ãģĮãģĻãģĳãģ°": 3352,
      "é£²ãģ¿çī©ãĤĴè²·ãģĦãģ¾ãģĻ": 3353,
      "Ġãģ¸ãģ¨ãģ¸ãģ¨ãģªãĤī": 3354,
      "ĠæĢ¥ãģĦãģ§ãģĦãĤĮãģ°": 3355,
      "Ġçĸ²åĬ´ãģĹãģ¦ãģĦãĤĮãģ°": 3356,
      "ĠåıĭéģĶãģ¨ä¼ļãģĪãģ°": 3357,
      "Ġå®¶æĹıãģ¨éģİãģĶãģĽãģ°": 3358,
      "ĠåŃ¦æł¡ãģĭãĤīå¸°ãģ£ãģŁãĤī": 3359,
      "Ġè²§ä¹ıãģªãĤī": 3360,
      "Ġè²¯éĩĳãģĮãģĤãĤĮãģ°": 3361,
      "Ġèħ¹ãĥļãĤ³ãģªãĤī": 3362,
      "Ġèħ¹ãģĮç«ĭãģ£ãģŁãĤī": 3363,
      "ĠÃ©puisÃ©": 3364,
      "Ġä½ķãģĭé£Łãģ¹ãģŁãģıãģªãģ£ãģŁãĤī": 3365,
      "ĠåıĸãĤĬè¾¼ãģ¿ä¸ŃãģªãĤī": 3366,
      "ĠãĤ¤ãĥ¤ãĥĽãĥ³ãĤĴãģĹãģ¦ãģĦãĤĭæĻĤ": 3367,
      "å½¼å¥³ãģ¯ä¸Ģç·Ĵãģ«é£Łãģ¹ãģ¾ãģĻ": 3368,
      "å½¼å¥³ãģ¯ä¼ĳæĨ©ãģĹãģ¾ãģĻ": 3369,
      "å½¼ãģ¯ä¸Ģç·Ĵãģ«é£Łãģ¹ãģ¾ãģĻ": 3370,
      "å½¼ãģ¯ä¼ĳæĨ©ãģĹãģ¾ãģĻ": 3371,
      "ĠåŃ¦æł¡ãģ§": 3372,
      "é£Łãģ¹ãĤĭãģĵãģ¨ãģ«æ±ºãĤģãģŁ": 3373,
      "Ġå®¶ãģ§": 3374,
      "ä¼ļç¤¾ãģ«ãģĦãĤĭ": 3375,
      "ä½ķãģĭãĤĴè²·ãģĨ": 3376,
      "åĤĺãĤĴæĮģãģ£ãģ¦ãģĦãģįãģ¾ãģĻ": 3377,
      "ĭīå¼·ãģĹãģ¾ãģĻ": 3378,
      "ãĤĢ": 3379,
      "å½¼å¥³ãģ¯ãģĬèĮ¶ãĤĴé£²ãģ¿ãģ¾ãģĻ": 3380,
      "å½¼ãģ¯ãģĬèĮ¶ãĤĴé£²ãģ¿ãģ¾ãģĻ": 3381,
      "ĠåĥįãģĦ": 3382,
      "ä¼ĳãĤĢ": 3383,
      "å½¼å¥³ãģ¯åĤĺãĤĴæĮģãģ£ãģ¦ãģĦãģįãģ¾ãģĻ": 3384,
      "å½¼ãģ¯åĤĺãĤĴæĮģãģ£ãģ¦ãģĦãģįãģ¾ãģĻ": 3385,
      "æĺ¨æĹ¥": 3386,
      "å®¶ãģ§æĺłçĶ»ãĤĴè¦ĭãģ¾ãģĻ": 3387,
      "å®¶ãģ§ä»ķäºĭãģĹãģ¾ãģĻ": 3388,
      "Ġå½¼ãĤīãģ¯åºĹãģ§": 3389,
      "ä»ķäºĭãģĻãĤĭ": 3390,
      "ä¼ļãģĨäºĪå®ļ": 3391,
      "ãĤĨãģ£ãģıãĤĬè²·ãģĨ": 3392,
      "çĹħéĻ¢ãģ§åĥįãģı": 3393,
      "å½¼ãģ¯å®¶ãģ§æĺłçĶ»ãĤĴè¦ĭãģ¾ãģĻ": 3394,
      "å½¼ãģ¯å®¶ãģ§ä»ķäºĭãģĹãģ¾ãģĻ": 3395,
      "å½¼å¥³ãģ¯å®¶ãģ§æĺłçĶ»ãĤĴè¦ĭãģ¾ãģĻ": 3396,
      "å½¼å¥³ãģ¯å®¶ãģ§ä»ķäºĭãģĹãģ¾ãģĻ": 3397,
      "ale": 3398,
      "aque": 3399,
      "ev": 3400,
      "haque": 3401,
      "iÃ©": 3402,
      "lit": 3403,
      "lÃ¨": 3404,
      "sas": 3405,
      "ures": 3406,
      "¤åĭ": 3407,
      "±ãģĦãģªãĤī": 3408,
      "·é": 3409,
      "¹ãģĦãģŁãĤī": 3410,
      "ºĢ": 3411,
      "¼·é": 3412,
      "ÃĢ": 3413,
      "Ġé£²ãģ¿çī©": 3414,
      "ĠÃĢ": 3415,
      "ĦãĤĴè¦ĭãģªãģĮãĤī": 3416,
      "ĩãģĦãģŁãĤī": 3417,
      "ĳãģ°": 3418,
      "ĵi": 3419,
      "ķçĶ»": 3420,
      "Ļä¸ŃãģªãĤī": 3421,
      "ãģ±ãģĦãģªãĤī": 3422,
      "heureux": 3423,
      "Ġmáº¡nh": 3424,
      "Ġass": 3425,
      "ĠcÃ¡": 3426,
      "Ġlá»Ľ": 3427,
      "ĠlÃ¨": 3428,
      "¾ãģĳãģ°": 3429,
      "ĠfÃ¢": 3430,
      "ĠgÃ¨": 3431,
      "Ġboi": 3432,
      "Ġheures": 3433,
      "Ġná»ķi": 3434,
      "erson": 3435,
      "Ġtout": 3436,
      "Ġperson": 3437,
      "aire": 3438,
      "ãģĦãģ£": 3439,
      "ĠTÃ´t": 3440,
      "arrive": 3441,
      "Ġá»ŀ": 3442,
      "icule": 3443,
      "Ġæ°´": 3444,
      "ĠæºĢ": 3445,
      "Ġras": 3446,
      "ffÃ©": 3447,
      "Ġå¼·é": 3448,
      "ĠcolÃ¨": 3449,
      "ãģ£ãģŁ": 3450,
      "ãģĮä¹": 3451,
      "ĠDÃ¨s": 3452,
      "ĠDev": 3453,
      "Ġsolit": 3454,
      "Ġchale": 3455,
      "Ġçķª": 3456,
      "ĠChaque": 3457,
      "å½¼å¥³ãģ¯åºĹãģ§": 3458,
      "Ġplus": 3459,
      "Ġforte": 3460,
      "enda": 3461,
      "nervÃ©": 3462,
      "ĠdÃ©pr": 3463,
      "oiffÃ©": 3464,
      "Ġdá»¯": 3465,
      "å¾ĮãģªãĤī": 3466,
      "Ġfinit": 3467,
      "é£Łãģ¹ãĤĭäºĪå®ļ": 3468,
      "çµĦãĤĴè¦ĭãģªãģĮãĤī": 3469,
      "Ġå½¼ãĤīãģ¯å®¶ãģ§": 3470,
      "Ġå½¼ãĤīãģ¯åŃ¦æł¡ãģ§": 3471,
      "ĠNetflixãĤĴè¦ĭãģªãģĮãĤī": 3472,
      "Ġavance": 3473,
      "Ġrencontrent": 3474,
      "Ġmalheureux": 3475,
      "Ġplein": 3476,
      "ä¼ļç¤¾ãģ§ä¼ļãģĨ": 3477,
      "Ġä»ķäºĭä¸ŃãģªãĤī": 3478,
      "ä¸Ģäººãģ§ä¼ļãģĨ": 3479,
      "ĠãĤªãĥķãĤ£ãĤ¹": 3480,
      "ĠãĥĨãĥ¬ãĥĵ": 3481,
      "Ġå½¼å¥³ãģ¯å®¶ãģ§": 3482,
      "éĢŁãģıè²·ãģĨ": 3483,
      "Ġå¿ĻãģĹãģĳãĤĮãģ°å½¼ãĤīãģ¯": 3484,
      "Ġå¿ĻãģĹãģĳãĤĮãģ°ä»Ĭ": 3485,
      "imÃ©": 3486,
      "¢¨ãģªãĤī": 3487,
      "Ġchauds": 3488,
      "ä¸Ńãģ¯": 3489,
      "Ġcanicule": 3490,
      "ãģ«ãģĦãĤĭæĻĤãģ¯": 3491,
      "Ġé¢¨ãģĮãģĤãĤĮãģ°": 3492,
      "Ġé¢¨ãģ®æĹ¥ãģ¯": 3493,
      "Ġfroids": 3494,
      "ĠãģĬèħ¹ãģĦãģ£": 3495,
      "åĲ¹ãģĦãģŁãĤī": 3496,
      "ĠjournÃ©e": 3497,
      "å¼·ãģĳãĤĮãģ°": 3498,
      "Ġfurieux": 3499,
      "ĠirritÃ©": 3500,
      "Ġrá»ĵi": 3501,
      "ĠÃ©nervÃ©": 3502,
      "Ġagenda": 3503,
      "ãģĮæ¸ĩãģĦãģŁãĤī": 3504,
      "Ġä»ķäºĭãĤĴãģĹãģ¦ãģĦãĤĮãģ°": 3505,
      "Ġé£Łãģ¹ãģŁå¾ĮãģªãĤī": 3506,
      "Ġåĭ¤åĭ": 3507,
      "ĠåĭķçĶ»": 3508,
      "Ġsortie": 3509,
      "Ġsortant": 3510,
      "ĠåĸīãģĮä¹": 3511,
      "ĠåĸīãģĮæ¸ĩãģĦãģŁãĤī": 3512,
      "ĠæĺłçĶ»ãĤĴè¦ĭãģ¦ãģĦãĤĭæĻĤ": 3513,
      "ĠæĺłçĶ»ä¸Ńãģ¯": 3514,
      "ĠrÃ©veil": 3515,
      "ĠrÃ©veille": 3516,
      "Ġé¢¨ãģĮåĲ¹ãģĦãģŁãĤī": 3517,
      "Ġé¢¨ãģĮå¼·ãģĳãĤĮãģ°": 3518,
      "ĠåĥįãģĦãģ¦ãģĦãĤĭæĻĤãģ¯": 3519,
      "sasiÃ©": 3520,
      "Ġé£²ãģ¿çī©ãģĮæ¬²ãģĹãģĳãĤĮãģ°": 3521,
      "ĠassoiffÃ©": 3522,
      "ĠcÃ¡u": 3523,
      "Ġlá»Ľn": 3524,
      "ĠlÃ¨ve": 3525,
      "ĠfÃ¢chÃ©": 3526,
      "ĠgÃ¨le": 3527,
      "Ġboire": 3528,
      "Ġpersonne": 3529,
      "Ġæ°´ãģĮæ¬²ãģĹãģĳãĤĮãģ°": 3530,
      "ĠæºĢèħ¹ãģªãĤī": 3531,
      "ĠrassasiÃ©": 3532,
      "Ġå¼·é¢¨ãģªãĤī": 3533,
      "ĠcolÃ¨re": 3534,
      "ĠDevant": 3535,
      "Ġsolitaire": 3536,
      "Ġchaleur": 3537,
      "ĠçķªçµĦãĤĴè¦ĭãģªãģĮãĤī": 3538,
      "ĠdÃ©primÃ©": 3539,
      "ĠãĤªãĥķãĤ£ãĤ¹ãģ«ãģĦãĤĭæĻĤãģ¯": 3540,
      "ĠãĥĨãĥ¬ãĥĵãĤĴè¦ĭãģ¦ãģĦãĤĭæĻĤ": 3541,
      "ĠãģĬèħ¹ãģĦãģ£ãģ±ãģĦãģªãĤī": 3542,
      "Ġåĭ¤åĭĻä¸ŃãģªãĤī": 3543,
      "ĠåĭķçĶ»ãĤĴè¦ĭãģªãģĮãĤī": 3544,
      "ĠåĸīãģĮä¹¾ãģĳãģ°": 3545,
      "å¤ĸãģ§éģĭåĭķãģĹãģ¾ãģĻ": 3546,
      "åħ¬åľĴãģ«è¡Įãģįãģ¾ãģĻ": 3547,
      "åĥįãģĦ": 3548,
      "æ®ĭæ¥ŃãģĹãģ¾ãģĻ": 3549,
      "å½¼å¥³ãģ¯ä¼ĳé¤ĬãģĹãģ¾ãģĻ": 3550,
      "å½¼å¥³ãģ¯çĹħéĻ¢ãģ«è¡Įãģįãģ¾ãģĻ": 3551,
      "å½¼å¥³ãģ¯æĺ¼é£ŁãĤĴæĬľãģįãģ¾ãģĻ": 3552,
      "å½¼å¥³ãģ¯èĸ¬ãĤĴé£²ãģ¿ãģ¾ãģĻ": 3553,
      "å½¼å¥³ãģ¯ãĤªãĥķãĤ£ãĤ¹ãģ«ãģĦãģ¾ãģĻ": 3554,
      "å½¼å¥³ãģ¯æĹ©ãģıå¯Ŀãģ¾ãģĻ": 3555,
      "å½¼å¥³ãģ¯æĺ¼å¯ĿãģĹãģ¾ãģĻ": 3556,
      "å½¼å¥³ãģ¯ãĥĶãĤ¯ãĥĭãĥĥãĤ¯ãģĹãģ¾ãģĻ": 3557,
      "å½¼ãģ¯ä¼ĳé¤ĬãģĹãģ¾ãģĻ": 3558,
      "å½¼ãģ¯çĹħéĻ¢ãģ«è¡Įãģįãģ¾ãģĻ": 3559,
      "å½¼ãģ¯æĺ¼é£ŁãĤĴæĬľãģįãģ¾ãģĻ": 3560,
      "å½¼ãģ¯èĸ¬ãĤĴé£²ãģ¿ãģ¾ãģĻ": 3561,
      "å½¼ãģ¯ãĤªãĥķãĤ£ãĤ¹ãģ«ãģĦãģ¾ãģĻ": 3562,
      "å½¼ãģ¯æĹ©ãģıå¯Ŀãģ¾ãģĻ": 3563,
      "å½¼ãģ¯æĺ¼å¯ĿãģĹãģ¾ãģĻ": 3564,
      "å½¼ãģ¯ãĥĶãĤ¯ãĥĭãĥĥãĤ¯ãģĹãģ¾ãģĻ": 3565,
      "å½¼å¥³ãģ¯å¤ĸãģ§éģĭåĭķãģĹãģ¾ãģĻ": 3566,
      "å½¼å¥³ãģ¯åħ¬åľĴãģ«è¡Įãģįãģ¾ãģĻ": 3567,
      "å½¼ãģ¯å¤ĸãģ§éģĭåĭķãģĹãģ¾ãģĻ": 3568,
      "å½¼ãģ¯åħ¬åľĴãģ«è¡Įãģįãģ¾ãģĻ": 3569,
      "å½¼ãĤīãģ¯é£Łãģ¹ãĤĭ": 3570,
      "å®¶ãģ§ä¼ĳãģ¿ãģ¾ãģĻ": 3571,
      "åĥįãģıäºĪå®ļ": 3572,
      "ä¼ļç¤¾ãģ§é£Łãģ¹ãĤĭ": 3573,
      "ä¼ļç¤¾ãģ§åŃ¦ãģ¶": 3574,
      "å½¼å¥³ãģ¯æ®ĭæ¥ŃãģĹãģ¾ãģĻ": 3575,
      "å½¼ãģ¯æ®ĭæ¥ŃãģĹãģ¾ãģĻ": 3576,
      "å½¼ãģ¯å®¶ãģ§ä¼ĳãģ¿ãģ¾ãģĻ": 3577,
      "å½¼å¥³ãģ¯å®¶ãģ§ä¼ĳãģ¿ãģ¾ãģĻ": 3578,
      "Ġå½¼å¥³ãģ¯åŃ¦æł¡ãģ§": 3579,
      "Ġå½¼å¥³ãģ¯åºĹãģ§": 3580,
      "'re": 3581,
      "åıĭéģĶãģ¨è©±ãģĹãģ¾ãģĻ": 3582,
      "åĨ·ãģŁãģĦæ°´ãĤĴé£²ãģ¿ãģ¾ãģĻ": 3583,
      "åħ±æľīãģĹãģ¾ãģĻ": 3584,
      "æ³³ãģİãģ«è¡Įãģįãģ¾ãģĻ": 3585,
      "æĢ¥ãģİãģ¾ãģĻ": 3586,
      "æ¸©ãģĭãģĦé£²ãģ¿çī©ãĤĴé£²ãģ¿ãģ¾ãģĻ": 3587,
      "ãģĻ": 3588,
      "å½¼å¥³ãģ¯ãģĦãĤĭ": 3589,
      "å½¼å¥³ãģ¯é£Łãģ¹ãģ¾ãģĻ": 3590,
      "å½¼å¥³ãģ¯ä»ķäºĭãģ«è¡Įãģįãģ¾ãģĻ": 3591,
      "å½¼å¥³ãģ¯æĺ¼é£ŁãĤĴé£Łãģ¹ãģ¾ãģĻ": 3592,
      "å½¼å¥³ãģ¯æľĿé£ŁãĤĴé£Łãģ¹ãģ¾ãģĻ": 3593,
      "å½¼å¥³ãģ¯æľĿé£ŁãĤĴæĬľãģįãģ¾ãģĻ": 3594,
      "å½¼å¥³ãģ¯èµ°ãĤĬãģ¾ãģĻ": 3595,
      "å½¼å¥³ãģ¯NetflixãĤĴè¦ĭãģ¾ãģĻ": 3596,
      "å½¼å¥³ãģ¯ãĤ¨ãĤ¢ãĤ³ãĥ³ãĤĴãģ¤ãģĳãģ¾ãģĻ": 3597,
      "å½¼å¥³ãģ¯å®¶æĹıãģ«ä¼ļãģĦãģ¾ãģĻ": 3598,
      "å½¼å¥³ãģ¯ä¸ĬçĿĢãĤĴçĿĢãģ¾ãģĻ": 3599,
      "å½¼å¥³ãģ¯çīĩä»ĺãģĳãģ¾ãģĻ": 3600,
      "å½¼å¥³ãģ¯ãģĬç¥ĿãģĦãģĹãģ¾ãģĻ": 3601,
      "å½¼å¥³ãģ¯YouTubeãĤĴè¦ĭãģ¾ãģĻ": 3602,
      "å½¼å¥³ãģ¯ãĥ¬ãĤ¹ãĥĪãĥ©ãĥ³ãģ«è¡Įãģįãģ¾ãģĻ": 3603,
      "å½¼å¥³ãģ¯æļĸæĪ¿ãĤĴãģ¤ãģĳãģ¾ãģĻ": 3604,
      "å½¼å¥³ãģ¯ãĤ¿ãĤ¯ãĤ·ãĥ¼ãģ«ä¹ĹãĤĬãģ¾ãģĻ": 3605,
      "å½¼ãģ¯é£Łãģ¹ãģ¾ãģĻ": 3606,
      "å½¼ãģ¯ä»ķäºĭãģ«è¡Įãģįãģ¾ãģĻ": 3607,
      "å½¼ãģ¯æĺ¼é£ŁãĤĴé£Łãģ¹ãģ¾ãģĻ": 3608,
      "å½¼ãģ¯æľĿé£ŁãĤĴé£Łãģ¹ãģ¾ãģĻ": 3609,
      "å½¼ãģ¯æľĿé£ŁãĤĴæĬľãģįãģ¾ãģĻ": 3610,
      "å½¼ãģ¯èµ°ãĤĬãģ¾ãģĻ": 3611,
      "å½¼ãģ¯NetflixãĤĴè¦ĭãģ¾ãģĻ": 3612,
      "å½¼ãģ¯ãĤ¨ãĤ¢ãĤ³ãĥ³ãĤĴãģ¤ãģĳãģ¾ãģĻ": 3613,
      "å½¼ãģ¯å®¶æĹıãģ«ä¼ļãģĦãģ¾ãģĻ": 3614,
      "å½¼ãģ¯ä¸ĬçĿĢãĤĴçĿĢãģ¾ãģĻ": 3615,
      "å½¼ãģ¯çīĩä»ĺãģĳãģ¾ãģĻ": 3616,
      "å½¼ãģ¯ãģĬç¥ĿãģĦãģĹãģ¾ãģĻ": 3617,
      "å½¼ãģ¯YouTubeãĤĴè¦ĭãģ¾ãģĻ": 3618,
      "å½¼ãģ¯ãĥ¬ãĤ¹ãĥĪãĥ©ãĥ³ãģ«è¡Įãģįãģ¾ãģĻ": 3619,
      "å½¼ãģ¯æļĸæĪ¿ãĤĴãģ¤ãģĳãģ¾ãģĻ": 3620,
      "å½¼ãģ¯ãĤ¿ãĤ¯ãĤ·ãĥ¼ãģ«ä¹ĹãĤĬãģ¾ãģĻ": 3621,
      "ãģ«éĢŁãģıè¡Įãģı": 3622,
      "ĠåºĹãģ§": 3623,
      "å½¼å¥³ãģ¯åıĭéģĶãģ¨è©±ãģĹãģ¾ãģĻ": 3624,
      "å½¼å¥³ãģ¯åĨ·ãģŁãģĦæ°´ãĤĴé£²ãģ¿ãģ¾ãģĻ": 3625,
      "å½¼å¥³ãģ¯åħ±æľīãģĹãģ¾ãģĻ": 3626,
      "å½¼å¥³ãģ¯å¤ķé£ŁãĤĴé£Łãģ¹ãģ¾ãģĻ": 3627,
      "å½¼å¥³ãģ¯å¯Ŀãģ¾ãģĻ": 3628,
      "å½¼ãģ¯åıĭéģĶãģ¨è©±ãģĹãģ¾ãģĻ": 3629,
      "å½¼ãģ¯åĨ·ãģŁãģĦæ°´ãĤĴé£²ãģ¿ãģ¾ãģĻ": 3630,
      "å½¼ãģ¯åħ±æľīãģĹãģ¾ãģĻ": 3631,
      "å½¼ãģ¯å¤ķé£ŁãĤĴé£Łãģ¹ãģ¾ãģĻ": 3632,
      "å½¼ãģ¯å¯Ŀãģ¾ãģĻ": 3633,
      "ĠéĢŁãģı": 3634,
      "Ġå½¼ãĤīãģ¯éĢŁãģı": 3635,
      "ºĹãģ«è¡Įãģı": 3636,
      "Ġdecided": 3637,
      "è²·ãģĨãģĵãģ¨ãģ«æ±ºãĤģãģŁ": 3638,
      "ä¼ļç¤¾ãģ§è²·ãģĨ": 3639,
      "ä¸Ģäººãģ§è²·ãģĨ": 3640,
      "ĠãĤĨãģ£ãģıãĤĬ": 3641,
      "Ġå½¼ãģ¯å®¶ãģ§": 3642,
      "éĢŁãģıåĥįãģı": 3643,
      "å¤ķé£ŁãĤĴé£Łãģ¹ãģ¾ãģĻ": 3644,
      "å½¼å¥³ãģ¯æ³³ãģİãģ«è¡Įãģįãģ¾ãģĻ": 3645,
      "å½¼å¥³ãģ¯æĢ¥ãģİãģ¾ãģĻ": 3646,
      "å½¼å¥³ãģ¯æ¸©ãģĭãģĦé£²ãģ¿çī©ãĤĴé£²ãģ¿ãģ¾ãģĻ": 3647,
      "å½¼ãģ¯æ³³ãģİãģ«è¡Įãģįãģ¾ãģĻ": 3648,
      "å½¼ãģ¯æĢ¥ãģİãģ¾ãģĻ": 3649,
      "å½¼ãģ¯æ¸©ãģĭãģĦé£²ãģ¿çī©ãĤĴé£²ãģ¿ãģ¾ãģĻ": 3650,
      "åºĹãģ§è²·ãģĨ": 3651,
      "åŃ¦æł¡ãģ«è¡Įãģı": 3652,
      "åºĹãģ«ãģĦãĤĭ": 3653,
      "å¤ĸé£ŁãģĹãģ¾ãģĻ": 3654,
      "æ·±åĳ¼åĲ¸ãģĹãģ¾ãģĻ": 3655,
      "ãģĲ": 3656,
      "å½¼å¥³ãģ¯è²·ãģĦãģ¾ãģĻ": 3657,
      "å½¼å¥³ãģ¯èĲ½ãģ¡çĿĢãģįãģ¾ãģĻ": 3658,
      "å½¼å¥³ãģ¯å®¿é¡ĮãĤĴãģĹãģ¾ãģĻ": 3659,
      "å½¼å¥³ãģ¯è²·ãģĦçī©ãĤĴæİ§ãģĪãģ¾ãģĻ": 3660,
      "å½¼å¥³ãģ¯ãĤ¹ãĥĬãĥĥãĤ¯ãĤĴé£Łãģ¹ãģ¾ãģĻ": 3661,
      "å½¼å¥³ãģ¯çŀĳæĥ³ãģĹãģ¾ãģĻ": 3662,
      "å½¼å¥³ãģ¯ç¯Ģç´ĦãģĹãģ¾ãģĻ": 3663,
      "å½¼å¥³ãģ¯éĿĻãģĭãģ«ãģĹãģ¾ãģĻ": 3664,
      "å½¼ãģ¯è²·ãģĦãģ¾ãģĻ": 3665,
      "å½¼ãģ¯èĲ½ãģ¡çĿĢãģįãģ¾ãģĻ": 3666,
      "å½¼ãģ¯å®¿é¡ĮãĤĴãģĹãģ¾ãģĻ": 3667,
      "å½¼ãģ¯è²·ãģĦçī©ãĤĴæİ§ãģĪãģ¾ãģĻ": 3668,
      "å½¼ãģ¯ãĤ¹ãĥĬãĥĥãĤ¯ãĤĴé£Łãģ¹ãģ¾ãģĻ": 3669,
      "å½¼ãģ¯çŀĳæĥ³ãģĹãģ¾ãģĻ": 3670,
      "å½¼ãģ¯ç¯Ģç´ĦãģĹãģ¾ãģĻ": 3671,
      "å½¼ãģ¯éĿĻãģĭãģ«ãģĹãģ¾ãģĻ": 3672,
      "ĠTo": 3673,
      "å®¶ãģ«è¡Įãģı": 3674,
      "ä¼ļãģĦãģŁãģĦ": 3675,
      "²·ãģĦãģŁãģĦ": 3676,
      "ãģĦãĤĭãģĵãģ¨ãģ«æ±ºãĤģãģŁ": 3677,
      "å½¼å¥³ãģ¯åŃ¦ãģ¶": 3678,
      "å½¼å¥³ãģ¯å¤ĸé£ŁãģĹãģ¾ãģĻ": 3679,
      "å½¼ãģ¯å¤ĸé£ŁãģĹãģ¾ãģĻ": 3680,
      "ãģ¦ãģĦãģ¾ãģĻ": 3681,
      "Ġä»ĬãģĻ": 3682,
      "å®¶ãģ§æĸĻçĲĨãģĹãģ¾ãģĻ": 3683,
      "è²·ãģĦãģŁãģĦ": 3684,
      "è¡ĮãģıäºĪå®ļ": 3685,
      "ä¸Ģäººãģ§ãģĦãĤĭ": 3686,
      "Ġå½¼å¥³ãģ¯ä¼ļç¤¾ãģ§": 3687,
      "Ġå½¼å¥³ãģ¯ãĤĨãģ£ãģıãĤĬ": 3688,
      "åŃ¦ãģ¶ãģĵãģ¨ãģ«æ±ºãĤģãģŁ": 3689,
      "å½¼å¥³ãģ¯æ·±åĳ¼åĲ¸ãģĹãģ¾ãģĻ": 3690,
      "å½¼ãģ¯æ·±åĳ¼åĲ¸ãģĹãģ¾ãģĻ": 3691,
      "å½¼ãģ¯å®¶ãģ§æĸĻçĲĨãģĹãģ¾ãģĻ": 3692,
      "å½¼å¥³ãģ¯å®¶ãģ§æĸĻçĲĨãģĹãģ¾ãģĻ": 3693,
      "åºĹãģ§ä¼ļãģĨ": 3694,
      "Ġventeux": 3695,
      "åŃ¦æł¡ãģ«ãģĦãĤĭ": 3696,
      "åºĹãģ«è¡Įãģı": 3697,
      "åĥįãģĦãģ¦ãģĦãĤĭ": 3698,
      "Ġä»ĬãģĻãģĲ": 3699,
      "£ãģŁ": 3700,
      "Ġam": 3701,
      "ãĤĴéĢŁãģıè²·ãģĨ": 3702,
      "å½¼å¥³ãģ¯ä¼ļãģĨ": 3703,
      "å½¼å¥³ãģ¯è©±ãģĹãģ¾ãģĻ": 3704,
      "å½¼å¥³ãģ¯ãĥĩãĤ¹ãĤ¯ãģ§é£Łãģ¹ãģ¾ãģĻ": 3705,
      "å½¼å¥³ãģ¯çªĵãĤĴéĸīãĤģãģ¾ãģĻ": 3706,
      "å½¼ãģ¯é£Łãģ¹ãĤĭ": 3707,
      "å½¼ãģ¯è¡Įãģı": 3708,
      "å½¼ãģ¯è©±ãģĹãģ¾ãģĻ": 3709,
      "å½¼ãģ¯ãĥĩãĤ¹ãĤ¯ãģ§é£Łãģ¹ãģ¾ãģĻ": 3710,
      "å½¼ãģ¯çªĵãĤĴéĸīãĤģãģ¾ãģĻ": 3711,
      "ãģªãģĦ": 3712,
      "ĠHier": 3713,
      "emain": 3714,
      "ĠDemain": 3715,
      "ãģĦãĤĭäºĪå®ļ": 3716,
      "å½¼å¥³ãģ¯åĭīå¼·ãģĹãģ¾ãģĻ": 3717,
      "å½¼ãģ¯åŃ¦æł¡": 3718,
      "å½¼ãģ¯åĥįãģı": 3719,
      "å½¼ãģ¯åĭīå¼·ãģĹãģ¾ãģĻ": 3720,
      "Ġquick": 3721,
      "å½¼ãĤīãģ¯ãģĦãĤĭ": 3722,
      "å®¶ãģ§é£Łãģ¹ãĤĭ": 3723,
      "å®¶ãģ§åĥįãģı": 3724,
      "åĭīå¼·": 3725,
      "åĭīå¼·ãģĹãģ¾ãģĻ": 3726,
      "ĥįãģį": 3727,
      "ºĹãģ«ãģĦãĤĭ": 3728,
      "ä¸Ģäººãģ§åŃ¦ãģ¶": 3729,
      "Ġå½¼å¥³ãģ¯çĹħéĻ¢ãģ§": 3730,
      "ĠçĹħæ°ĹãģªãĤīå½¼ãĤīãģ¯": 3731,
      "åŃ¦æł¡ãģ§åĥįãģı": 3732,
      "åŃ¦æł¡ãģ§åŃ¦ãģ¶": 3733,
      "Ġå½¼å¥³ãģ¯åŃ¦æł¡": 3734,
      "ä»ĬæĹ¥": 3735,
      "Ġquickly": 3736,
      "ĥįãģįãģŁãģĦ": 3737,
      "åŃ¦": 3738,
      "åĥįãģįãģŁãģĦ": 3739,
      "ãģ¸": 3740,
      "Ġthey": 3741,
      "ãĤĴãĤĨãģ£ãģıãĤĬè²·ãģĨ": 3742,
      "å½¼å¥³ãģ¯è¡Įãģı": 3743,
      "å½¼å¥³ãģ¯é£²ãģ¿çī©ãĤĴè²·ãģĦãģ¾ãģĻ": 3744,
      "å½¼ãģ¯ãģĦãĤĭ": 3745,
      "å½¼ãģ¯é£²ãģ¿çī©ãĤĴè²·ãģĦãģ¾ãģĻ": 3746,
      "ãģ«ãģĦãģŁãģĦ": 3747,
      "ãģ«ä¸Ģäººãģ§è¡Įãģı": 3748,
      "ãģ«éĢŁãģıãģĦãĤĭ": 3749,
      "Ġstaying": 3750,
      "é£Łãģ¹ãģ¦ãģĦãĤĭ": 3751,
      "Ġmeeting": 3752,
      "ãģ«è¡Įãģ£ãģŁ": 3753,
      "å½¼ãģ¯åŃ¦æł¡ãģ§": 3754,
      "Ġä»ĬæĹ¥ãģ¯": 3755,
      "å½¼ãĤīãģ¯ä¼ļãģĨ": 3756,
      "å®¶ãģ§ä¼ļãģĨ": 3757,
      "å®¶ãģ§åŃ¦ãģ¶": 3758,
      "è¡Įãģıãģĵãģ¨ãģ«æ±ºãĤģãģŁ": 3759,
      "éĢŁãģıé£Łãģ¹ãĤĭ": 3760,
      "Ġå¿ĻãģĹãģĳãĤĮãģ°æĺ¨æĹ¥": 3761,
      "ĠçĹħæ°ĹãģªãĤīæĺİæĹ¥": 3762,
      "ãĤĨãģ£ãģıãĤĬãģĦãĤĭ": 3763,
      "ãĤĨãģ£ãģıãĤĬåĥįãģı": 3764,
      "ãĤĨãģ£ãģıãĤĬè¡Įãģı": 3765,
      "ĠéĽ¨ãģªãĤīå½¼ãĤīãģ¯": 3766,
      "çĹħéĻ¢ãģ§åŃ¦ãģ¶": 3767,
      "çĹħéĻ¢ãģ§èĸ¬ãĤĴè²·ãģĨ": 3768,
      "ĠAujourd": 3769,
      "å®¶ãģ«å¸°ãĤĭ": 3770,
      "å½¼å¥³ãģ¯æ°´ãĤĴé£²ãģ¿ãģ¾ãģĻ": 3771,
      "å½¼ãģ¯æ°´ãĤĴé£²ãģ¿ãģ¾ãģĻ": 3772,
      "åºĹãģ§é£Łãģ¹ãĤĭ": 3773,
      "åºĹãģ§åĥįãģı": 3774,
      "åŃ¦æł¡ãģ§é£Łãģ¹ãĤĭ": 3775,
      "åŃ¦æł¡ãģ§ä¼ļãģĨ": 3776,
      "åŃ¦æł¡ãģ§æľ¬ãĤĴè²·ãģĨ": 3777,
      "Ġå½¼ãģ¯åŃ¦æł¡": 3778,
      "Ġå½¼ãģ¯åºĹãģ§": 3779,
      "ä½ķãģĭãĤĴéĢŁãģıè²·ãģĨ": 3780,
      "åĭīå¼·ãģĻãĤĭ": 3781,
      "Yesterday": 3782,
      "el": 3783,
      "tÃ©": 3784,
      "´åĲĪ": 3785,
      "åł": 3786,
      "ĠYesterday": 3787,
      "ĭãģªãģĦ": 3788,
      "ĠbÃ¢y": 3789,
      "ãģ¯å®¶ãģ§": 3790,
      "Ġhim": 3791,
      "ĠNow": 3792,
      "ãĤĴä¸Ģäººãģ§è²·ãģĨ": 3793,
      "å½¼å¥³ãģ¯é£Łãģ¹ãĤĭ": 3794,
      "å½¼å¥³ãģ¯çĹħéĻ¢ãģ§": 3795,
      "å½¼å¥³ãģ¯å®¶ãģ«ãģĦãĤĭ": 3796,
      "å½¼ãģ¯è²·ãģĨ": 3797,
      "å½¼ãģ¯çĹħéĻ¢ãģ«è¡Įãģı": 3798,
      "å½¼ãģ¯çĹħéĻ¢ãģ§ä¼ļãģĨ": 3799,
      "Ġworked": 3800,
      "Ġstayed": 3801,
      "ĠåŃ¦ãģ¶": 3802,
      "ĠLet": 3803,
      "ä¼ļãģ£ãģŁ": 3804,
      "Ġtravaill": 3805,
      "Ġbuying": 3806,
      "ãģ«è¡ĮãģįãģŁãģĦ": 3807,
      "å½¼å¥³ãģ¯åĥįãģı": 3808,
      "å½¼å¥³ãģ¯åºĹãģ«è¡Įãģı": 3809,
      "å½¼ãģ¯åŃ¦ãģ¶": 3810,
      "æľ¬": 3811,
      "Ġquel": 3812,
      "Ġbooks": 3813,
      "å½¼ãĤīãģ¯åºĹãģ§": 3814,
      "å½¼ãĤīãģ¯çĹħéĻ¢ãģ«ãģĦãĤĭ": 3815,
      "ĠallÃ©": 3816,
      "ĥįãģıãģĵãģ¨ãģ«æ±ºãĤģãģŁ": 3817,
      "Ġå½¼ãĤīãģ¯çĹħéĻ¢": 3818,
      "Ġå½¼ãĤīãģ¯ä¼ļç¤¾ãģ§": 3819,
      "ä¼ļãģĨãģĵãģ¨ãģ«æ±ºãĤģãģŁ": 3820,
      "æľ¬ãĤĴè²·ãģĦãģŁãģĦ": 3821,
      "Ġå½¼å¥³ãģ¯éĢŁãģı": 3822,
      "Ġå½¼å¥³ãģ¯ä¼ļç¤¾ãģ«": 3823,
      "Ġå½¼ãģ¯ä¼ļç¤¾ãģ«è¡Įãģı": 3824,
      "ĠçĹħæ°ĹãģªãĤīå½¼å¥³ãģ¯": 3825,
      "ĠçĹħæ°ĹãģªãĤīä»Ĭ": 3826,
      "ãĤĨãģ£ãģıãĤĬä¼ļãģĨ": 3827,
      "ĠéĽ¨ãģªãĤīå½¼ãģ¯": 3828,
      "ĠéĽ¨ãģªãĤīæĺİæĹ¥": 3829,
      "ĠachetÃ©": 3830,
      "Ġå½¼å¥³ãģ¯åŃ¦ãģ¶": 3831,
      "Ġå½¼ãģ¯åºĹ": 3832,
      "èĸ¬ãĤĴè²·ãģĦãģŁãģĦ": 3833,
      "ä¸Ģäººãģ§åĥįãģıãģĵãģ¨ãģ«æ±ºãĤģãģŁ": 3834,
      "å½¼å¥³ãģ¯åºĹãģ§åĥįãģı": 3835,
      "Ġå¿ĻãģĹãģĳãĤĮãģ°ä»ĬæĹ¥": 3836,
      "ĠToday": 3837,
      "ĠTomorrow": 3838,
      "åŃ¦ãĤĵãģł": 3839,
      "´åĲĪãģ¯å®¶ãģ§": 3840,
      "åł´åĲĪãģ¯å®¶ãģ§": 3841,
      "ĠtravaillÃ©": 3842,
      "Mai": 3843,
      "aller": 3844,
      "ime": 3845,
      "tir": 3846,
      "çĹħ": 3847,
      "Ġè¡ĮãģįãģŁãģĦ": 3848,
      "Ġä¼ļç¤¾ãģ«è¡Įãģı": 3849,
      "ĠMai": 3850,
      "Ġbough": 3851,
      "Ġwil": 3852,
      "Ġher": 3853,
      "ãģĦãģŁ": 3854,
      "ãģĹãģŁ": 3855,
      "ãģĹãģŁãģĦ": 3856,
      "å½¼å¥³ãģ¯éĢŁãģıè¡Įãģı": 3857,
      "å½¼å¥³ãģ¯çĹħéĻ¢ãģ«ãģĦãĤĭ": 3858,
      "å½¼å¥³ãģ¯ä¸Ģäººãģ§è¡Įãģı": 3859,
      "å½¼å¥³ãģ¯ä¼ļç¤¾ãģ§ä¼ļãģĨ": 3860,
      "å½¼å¥³ãģ¯ä¼ļç¤¾ãģ§åŃ¦ãģ¶": 3861,
      "å½¼ãģ¯ä¼ļç¤¾ãģ«": 3862,
      "å½¼ãģ¯ãģĦãģŁãģĦ": 3863,
      "å½¼ãģ¯é£Łãģ¹çī©ãĤĴè²·ãģĨ": 3864,
      "å½¼ãģ¯ä¼ļç¤¾ãģ§åĥįãģı": 3865,
      "å½¼ãģ¯ä¼ļç¤¾ãģ«ãģĦãĤĭ": 3866,
      "ĠTime": 3867,
      "ãģ«ä¸Ģäººãģ§ãģĦãĤĭ": 3868,
      "Ġrests": 3869,
      "Ġmet": 3870,
      "é£Łãģ¹ãģ¦ãģĦãģ¾ãģĻ": 3871,
      "²·ãģ£ãģŁ": 3872,
      "ãģ«è¡ĮãģĭãģªãģĦ": 3873,
      "å®¶ãģ«ä¸Ģäººãģ§ãģĦãĤĭ": 3874,
      "å®¶ãģ«ãģĦãģŁ": 3875,
      "å½¼å¥³ãģ¯åŃ¦æł¡ãģ§": 3876,
      "å½¼å¥³ãģ¯åºĹãģ«ãģĦãĤĭ": 3877,
      "å½¼ãģ¯åºĹãģ§": 3878,
      "è²·ãģ£ãģŁ": 3879,
      "å½¼ãĤīãģ¯è²·ãģĨ": 3880,
      "å½¼ãĤīãģ¯åŃ¦ãģ¶": 3881,
      "å½¼ãĤīãģ¯è¡ĮãģįãģŁãģĦ": 3882,
      "å½¼ãĤīãģ¯ãĤĨãģ£ãģıãĤĬé£Łãģ¹ãĤĭ": 3883,
      "å½¼ãĤīãģ¯å®¶ãģ«è¡Įãģı": 3884,
      "å®¶ãģ§è²·ãģĨ": 3885,
      "ãģ®åł´åĲĪãģ¯å®¶ãģ§": 3886,
      "Ġlearning": 3887,
      "¬ãĤĴè²·ãģĨ": 3888,
      "ĥįãģıäºĪå®ļ": 3889,
      "Ġèĸ": 3890,
      "Ġå½¼ãĤīãģ¯åŃ¦ãģ¶": 3891,
      "Ġå½¼ãĤīãģ¯çĹħéĻ¢ãģ§": 3892,
      "Ġå½¼ãĤīãģ¯ä¼ļç¤¾ãģ«": 3893,
      "Ġå½¼ãĤīãģ¯æľ¬ãĤĴè²·ãģĨ": 3894,
      "Ġå½¼ãĤīãģ¯èĸ¬ãĤĴè²·ãģĨ": 3895,
      "Ġå½¼ãĤīãģ¯çĹħéĻ¢ãģ§ä¼ļãģĨ": 3896,
      "Ġå½¼ãĤīãģ¯çĹħéĻ¢ãģ§åĥįãģı": 3897,
      "Ġå½¼ãĤīãģ¯åŃ¦æł¡ãģ«ãģĦãĤĭ": 3898,
      "ĠrencontrÃ©": 3899,
      "è²·ãģĦçī©ãģĻãĤĭ": 3900,
      "Ġseule": 3901,
      "Ġpartir": 3902,
      "ä¸Ģäººãģ§ãģĦãģŁãģĦ": 3903,
      "Ġå½¼å¥³ãģ¯è²·ãģĨ": 3904,
      "Ġå½¼å¥³ãģ¯éĢŁãģıãģĦãĤĭ": 3905,
      "Ġå½¼å¥³ãģ¯æĺİæĹ¥": 3906,
      "Ġå½¼å¥³ãģ¯ä¸Ģäººãģ§åĥįãģı": 3907,
      "Ġå½¼ãģ¯å®¶ãģ«": 3908,
      "Ġå½¼ãģ¯çĹħéĻ¢": 3909,
      "Ġå½¼ãģ¯ä¼ļç¤¾ãģ§": 3910,
      "Ġå½¼ãģ¯éĢŁãģı": 3911,
      "Ġå½¼ãģ¯å®¶ãģ«ãģĦãĤĭ": 3912,
      "Ġå½¼ãģ¯æľ¬ãĤĴè²·ãģĨ": 3913,
      "Ġå½¼ãģ¯çĹħéĻ¢ãģ«ãģĦãĤĭ": 3914,
      "Ġå½¼ãģ¯çĹħéĻ¢ãģ«è¡Įãģı": 3915,
      "Ġå½¼ãģ¯ä¼ļç¤¾ãģ«ãģĦãĤĭ": 3916,
      "Ġå½¼ãģ¯ä¼ļç¤¾ãģ§è²·ãģĨ": 3917,
      "Ġå½¼ãģ¯ä»ĬæĹ¥": 3918,
      "éĢŁãģıãģĦãģŁãģĦ": 3919,
      "éĢŁãģıåŃ¦ãģ¶ãģĵãģ¨ãģ«æ±ºãĤģãģŁ": 3920,
      "Ġå¿ĻãģĹãģĳãĤĮãģ°å½¼ãģ¯å®¶ãģ§": 3921,
      "Ġå¿ĻãģĹãģĳãĤĮãģ°æĺİæĹ¥": 3922,
      "ĠçĹħæ°ĹãģªãĤīå½¼ãģ¯": 3923,
      "ĠçĹħæ°ĹãģªãĤīæĺ¨æĹ¥": 3924,
      "ãĤĨãģ£ãģıãĤĬåŃ¦ãģ¶": 3925,
      "ĠéĽ¨ãģªãĤīä»Ĭ": 3926,
      "ĠéĽ¨ãģªãĤīæĺ¨æĹ¥": 3927,
      "ĠéĽ¨ãģªãĤīå½¼ãģ¯åŃ¦æł¡": 3928,
      "çĹħéĻ¢ãģ§é£Łãģ¹ãĤĭ": 3929,
      "çĹħéĻ¢ãģ§é£Łãģ¹çī©ãĤĴè²·ãģĨ": 3930,
      "Ġé£Łãģ¹çī©": 3931,
      "Ġå½¼å¥³ãģ¯åºĹ": 3932,
      "Ġå½¼å¥³ãģ¯åºĹãģ«è¡Įãģı": 3933,
      "Ġå½¼ãģ¯åŃ¦ãģ¶": 3934,
      "Ġstudying": 3935,
      "é£Łãģ¹çī©ãĤĴè²·": 3936,
      "ĠçĹħéĻ¢ãģ¸": 3937,
      "åŃ¦æł¡ãģ«è¡Įãģ£ãģŁ": 3938,
      "åŃ¦æł¡ãģ«è¡ĮãģĭãģªãģĦ": 3939,
      "ãĤĨãģ£ãģıãĤĬé£Łãģ¹ãĤĭäºĪå®ļ": 3940,
      "ä½ķãģĭãĤĴè²·ãģĨäºĪå®ļ": 3941,
      "å½¼å¥³ãģ¯åºĹãģ§åŃ¦ãģ¶": 3942,
      "Ġå½¼ãĤīãģ¯å®¶ãģ§åŃ¦ãģ¶": 3943,
      "åĥįãģĦãģŁ": 3944,
      "å½¼ãģ¯åŃ¦æł¡ãģ«ãģĦãĤĭ": 3945,
      "æľ¬ãĤĴãĤĨãģ£ãģıãĤĬè²·ãģĨ": 3946,
      "Ġquelque": 3947,
      "Ġå½¼å¥³ãģ¯åŃ¦ãģ¶äºĪå®ļ": 3948,
      "çĹħæ°ĹãģªãĤī": 3949,
      "ĠMaintenant": 3950,
      "Ġbought": 3951,
      "Ġwill": 3952,
      "é£Łãģ¹çī©ãĤĴè²·ãģĦãģŁãģĦ": 3953
    },
    "merges": [
      [
        "ã",
        "ģ"
      ],
      [
        "Ġ",
        "t"
      ],
      [
        "h",
        "e"
      ],
      [
        "Ġ",
        "I"
      ],
      [
        "Ġ",
        "s"
      ],
      [
        "ã",
        "Ģ"
      ],
      [
        "á",
        "»"
      ],
      [
        "á",
        "º"
      ],
      [
        "ã",
        "Ĥ"
      ],
      [
        "n",
        "g"
      ],
      [
        "Ġ",
        "m"
      ],
      [
        "h",
        "Ã"
      ],
      [
        "Ġ",
        "a"
      ],
      [
        "r",
        "e"
      ],
      [
        "Ġ",
        "c"
      ],
      [
        "ãĢ",
        "Ĥ"
      ],
      [
        "Ġ",
        "d"
      ],
      [
        "Ġ",
        "l"
      ],
      [
        "Ġt",
        "hÃ"
      ],
      [
        "ĠthÃ",
        "¬"
      ],
      [
        "ãĢ",
        "ģ"
      ],
      [
        "ĠI",
        "f"
      ],
      [
        "Ã",
        "´"
      ],
      [
        "¾",
        "ãģ"
      ],
      [
        "Ġ",
        "f"
      ],
      [
        "Ġ",
        "g"
      ],
      [
        "i",
        "s"
      ],
      [
        "Ġ",
        "b"
      ],
      [
        "ãģ",
        "¾ãģ"
      ],
      [
        "ãģ",
        "¯"
      ],
      [
        "ãģ¾ãģ",
        "Ļ"
      ],
      [
        "Ġ",
        "w"
      ],
      [
        "Ġ",
        "h"
      ],
      [
        "a",
        "t"
      ],
      [
        "Ġ",
        "W"
      ],
      [
        "áº",
        "¥"
      ],
      [
        "Ġ",
        "he"
      ],
      [
        "'",
        "m"
      ],
      [
        "Ġ",
        "áº¥"
      ],
      [
        "½",
        "¼"
      ],
      [
        "å",
        "½¼"
      ],
      [
        "Ġ",
        "n"
      ],
      [
        "Ġ",
        "e"
      ],
      [
        "Ġáº¥",
        "y"
      ],
      [
        "l",
        "e"
      ],
      [
        "Ġ",
        "i"
      ],
      [
        "Ġs",
        "he"
      ],
      [
        "he",
        "n"
      ],
      [
        "ĠW",
        "hen"
      ],
      [
        "Ġ",
        "j"
      ],
      [
        "Ġ",
        "Ä"
      ],
      [
        "o",
        "r"
      ],
      [
        "n",
        "h"
      ],
      [
        "e",
        "r"
      ],
      [
        "n",
        "d"
      ],
      [
        "i",
        "ng"
      ],
      [
        "Ġt",
        "o"
      ],
      [
        "Ġ",
        "p"
      ],
      [
        "a",
        "y"
      ],
      [
        "Ã",
        "ł"
      ],
      [
        "m",
        "e"
      ],
      [
        "Ġt",
        "he"
      ],
      [
        "o",
        "n"
      ],
      [
        "ãĤ",
        "ī"
      ],
      [
        "Į",
        "ãģ"
      ],
      [
        "Ġ",
        "re"
      ],
      [
        "Ġ",
        "v"
      ],
      [
        "o",
        "u"
      ],
      [
        "ĠÄ",
        "ĳ"
      ],
      [
        "a",
        "i"
      ],
      [
        "Ġj",
        "e"
      ],
      [
        "h",
        "i"
      ],
      [
        "Ġ",
        "S"
      ],
      [
        "ã",
        "ĥ"
      ],
      [
        "s",
        "t"
      ],
      [
        "Ġ",
        "N"
      ],
      [
        "ãģ",
        "Ħ"
      ],
      [
        "áº",
        "¿"
      ],
      [
        "Ġg",
        "o"
      ],
      [
        "Ã´",
        "i"
      ],
      [
        "Ã",
        "©"
      ],
      [
        "ãģ",
        "Ĺ"
      ],
      [
        "Ġs",
        "t"
      ],
      [
        "a",
        "v"
      ],
      [
        "Ġd",
        "e"
      ],
      [
        "l",
        "le"
      ],
      [
        "ãĤ",
        "Ĵ"
      ],
      [
        "áº¿",
        "u"
      ],
      [
        "ĠN",
        "áº¿u"
      ],
      [
        "n",
        "t"
      ],
      [
        "Ġh",
        "o"
      ],
      [
        "c",
        "h"
      ],
      [
        "Ġt",
        "Ã´i"
      ],
      [
        "e",
        "e"
      ],
      [
        "¥",
        "³"
      ],
      [
        "å",
        "¥³"
      ],
      [
        "å½¼",
        "å¥³"
      ],
      [
        "å½¼å¥³",
        "ãģ¯"
      ],
      [
        "å½¼",
        "ãģ¯"
      ],
      [
        "o",
        "o"
      ],
      [
        "u",
        "a"
      ],
      [
        "Ġt",
        "r"
      ],
      [
        "Ġc",
        "Ã´"
      ],
      [
        "K",
        "hi"
      ],
      [
        "Ġ",
        "Khi"
      ],
      [
        "Ġ",
        "T"
      ],
      [
        "a",
        "l"
      ],
      [
        "a",
        "r"
      ],
      [
        "i",
        "e"
      ],
      [
        "Ġa",
        "nh"
      ],
      [
        "i",
        "t"
      ],
      [
        "Ġ",
        "á»"
      ],
      [
        "i",
        "c"
      ],
      [
        "i",
        "n"
      ],
      [
        "Ġi",
        "t"
      ],
      [
        "Ġ",
        "u"
      ],
      [
        "ãģ",
        "«"
      ],
      [
        "ãģĹ",
        "ãģ¾ãģĻ"
      ],
      [
        "ãģ",
        "ª"
      ],
      [
        "Ġ",
        "ng"
      ],
      [
        "ãĤ",
        "Įãģ"
      ],
      [
        "av",
        "e"
      ],
      [
        "i",
        "á»"
      ],
      [
        "Ġ",
        "æ"
      ],
      [
        "Ġá»",
        "Ł"
      ],
      [
        "Ġm",
        "a"
      ],
      [
        "Ġl",
        "e"
      ],
      [
        "ãģ",
        "Ł"
      ],
      [
        "Ġa",
        "t"
      ],
      [
        "é",
        "£"
      ],
      [
        "Ġw",
        "or"
      ],
      [
        "Ġ",
        "Ãł"
      ],
      [
        "Ġe",
        "at"
      ],
      [
        "ĠS",
        "i"
      ],
      [
        "Ġ",
        "o"
      ],
      [
        "Ġi",
        "l"
      ],
      [
        "ãĤĮãģ",
        "°"
      ],
      [
        "'",
        "s"
      ],
      [
        "Ġ",
        "A"
      ],
      [
        "Ġwor",
        "k"
      ],
      [
        "o",
        "w"
      ],
      [
        "Ġ",
        "H"
      ],
      [
        "Ġb",
        "u"
      ],
      [
        "Ġ",
        "r"
      ],
      [
        "Ġs",
        "u"
      ],
      [
        "Ġho",
        "me"
      ],
      [
        "ãģª",
        "ãĤī"
      ],
      [
        "d",
        "e"
      ],
      [
        "u",
        "r"
      ],
      [
        "Ġst",
        "ay"
      ],
      [
        "ĥ",
        "n"
      ],
      [
        "s",
        "e"
      ],
      [
        "áº",
        "¡"
      ],
      [
        "k",
        "e"
      ],
      [
        "Æ",
        "°"
      ],
      [
        "f",
        "f"
      ],
      [
        "æ",
        "Ĺ"
      ],
      [
        "Ġe",
        "lle"
      ],
      [
        "Ġ",
        "å"
      ],
      [
        "nd",
        "s"
      ],
      [
        "ĠÄĳ",
        "i"
      ],
      [
        "Ġre",
        "st"
      ],
      [
        "Ġm",
        "e"
      ],
      [
        "ä",
        "¼"
      ],
      [
        "Ġsu",
        "is"
      ],
      [
        "Ġf",
        "a"
      ],
      [
        "á»",
        "ĳ"
      ],
      [
        "Ġh",
        "ave"
      ],
      [
        "ou",
        "t"
      ],
      [
        "h",
        "á»"
      ],
      [
        "Ġl",
        "a"
      ],
      [
        "ãģŁ",
        "ãĤī"
      ],
      [
        "Q",
        "ua"
      ],
      [
        "Ġ",
        "Qua"
      ],
      [
        "ĠQua",
        "nd"
      ],
      [
        "l",
        "y"
      ],
      [
        "Ã",
        "³"
      ],
      [
        "hÃ",
        "ł"
      ],
      [
        "å",
        "®"
      ],
      [
        "d",
        "ay"
      ],
      [
        "l",
        "a"
      ],
      [
        "ĠÄ",
        "ĥn"
      ],
      [
        "Ġc",
        "o"
      ],
      [
        "é£",
        "Ł"
      ],
      [
        "a",
        "u"
      ],
      [
        "Ġf",
        "r"
      ],
      [
        "on",
        "e"
      ],
      [
        "Ġm",
        "y"
      ],
      [
        "á»",
        "į"
      ],
      [
        "iá»",
        "ĩ"
      ],
      [
        "ãģ",
        "§"
      ],
      [
        "ãģ",
        "¿"
      ],
      [
        "ãĤĴ",
        "è"
      ],
      [
        "æĹ",
        "¥"
      ],
      [
        "Ġ",
        "out"
      ],
      [
        "e",
        "t"
      ],
      [
        "Ġw",
        "at"
      ],
      [
        "Ġ",
        "ä"
      ],
      [
        "Ġv",
        "iá»ĩ"
      ],
      [
        "ãģ",
        "ĳ"
      ],
      [
        "e",
        "n"
      ],
      [
        "Ġi",
        "n"
      ],
      [
        "e",
        "m"
      ],
      [
        "Ġn",
        "hÃł"
      ],
      [
        "i",
        "de"
      ],
      [
        "á»",
        "Ŀ"
      ],
      [
        "Ġl",
        "Ãł"
      ],
      [
        "a",
        "d"
      ],
      [
        "Ġo",
        "ff"
      ],
      [
        "a",
        "nt"
      ],
      [
        "áº",
        "Ń"
      ],
      [
        "Ġwat",
        "ch"
      ],
      [
        "ãĤ",
        "ĭ"
      ],
      [
        "å®",
        "¶"
      ],
      [
        "ãģ",
        "£"
      ],
      [
        "ãģ",
        "Į"
      ],
      [
        "ĠlÃł",
        "m"
      ],
      [
        "ãģ",
        "ı"
      ],
      [
        "Ġt",
        "a"
      ],
      [
        "ai",
        "n"
      ],
      [
        "Ġ",
        "k"
      ],
      [
        "ä",
        "º"
      ],
      [
        "ãģ¿",
        "ãģ¾ãģĻ"
      ],
      [
        "Ġfr",
        "ie"
      ],
      [
        "ãģĳ",
        "ãĤĮãģ°"
      ],
      [
        "Ġ",
        "é"
      ],
      [
        "Ġ",
        "L"
      ],
      [
        "hÃ",
        "´"
      ],
      [
        "Ġb",
        "á»"
      ],
      [
        "oo",
        "d"
      ],
      [
        "p",
        "p"
      ],
      [
        "he",
        "r"
      ],
      [
        "Ġt",
        "i"
      ],
      [
        "¡",
        "Įãģ"
      ],
      [
        "è",
        "¡Įãģ"
      ],
      [
        "Ġfrie",
        "nds"
      ],
      [
        "Ġs",
        "h"
      ],
      [
        "ãģ",
        "Įãģ"
      ],
      [
        "ĠI",
        "l"
      ],
      [
        "O",
        "n"
      ],
      [
        "Ġ",
        "On"
      ],
      [
        "Ġm",
        "u"
      ],
      [
        "a",
        "c"
      ],
      [
        "ãģ",
        "¹"
      ],
      [
        "é£Ł",
        "ãģ¹"
      ],
      [
        "ic",
        "e"
      ],
      [
        "Ġ",
        "D"
      ],
      [
        "Ġw",
        "e"
      ],
      [
        "ä¼",
        "ļ"
      ],
      [
        "Ġs",
        "o"
      ],
      [
        "Ġviá»ĩ",
        "c"
      ],
      [
        "q",
        "u"
      ],
      [
        "Ġc",
        "h"
      ],
      [
        "o",
        "re"
      ],
      [
        "u",
        "n"
      ],
      [
        "Ġ",
        "J"
      ],
      [
        "i",
        "l"
      ],
      [
        "p",
        "it"
      ],
      [
        "pit",
        "al"
      ],
      [
        "Ġf",
        "ood"
      ],
      [
        "ãģĦ",
        "ãģ¾ãģĻ"
      ],
      [
        "a",
        "s"
      ],
      [
        "Ġu",
        "n"
      ],
      [
        "t",
        "er"
      ],
      [
        "Ġ",
        "on"
      ],
      [
        "į",
        "ãģ¾ãģĻ"
      ],
      [
        "Ġe",
        "x"
      ],
      [
        "Ã",
        "¡"
      ],
      [
        "áº",
        "·"
      ],
      [
        "ĠH",
        "e"
      ],
      [
        "Ġ",
        "x"
      ],
      [
        "Ġma",
        "ng"
      ],
      [
        "ĠS",
        "he"
      ],
      [
        "Ġ",
        "E"
      ],
      [
        "ur",
        "ing"
      ],
      [
        "ĠD",
        "uring"
      ],
      [
        "Ġm",
        "ee"
      ],
      [
        "ou",
        "r"
      ],
      [
        "av",
        "ai"
      ],
      [
        "Ġtr",
        "avai"
      ],
      [
        "Ġmee",
        "t"
      ],
      [
        "he",
        "y"
      ],
      [
        "ĠT",
        "hey"
      ],
      [
        "at",
        "e"
      ],
      [
        "ãĥ",
        "¼"
      ],
      [
        "Ġm",
        "ua"
      ],
      [
        "é",
        "ģ"
      ],
      [
        "Ġs",
        "ch"
      ],
      [
        "oo",
        "l"
      ],
      [
        "Ġsch",
        "ool"
      ],
      [
        "Ġbu",
        "y"
      ],
      [
        "Ġde",
        "s"
      ],
      [
        "e",
        "st"
      ],
      [
        "Ġd",
        "u"
      ],
      [
        "a",
        "n"
      ],
      [
        "Ġd",
        "r"
      ],
      [
        "á»Ŀ",
        "i"
      ],
      [
        "Ġta",
        "ke"
      ],
      [
        "Ã©",
        "c"
      ],
      [
        "f",
        "ter"
      ],
      [
        "Ġn",
        "o"
      ],
      [
        "ĠA",
        "fter"
      ],
      [
        "Ġrest",
        "e"
      ],
      [
        "t",
        "e"
      ],
      [
        "Ġa",
        "u"
      ],
      [
        "Ġ",
        "is"
      ],
      [
        "²",
        "·"
      ],
      [
        "ĠÄĳ",
        "á»"
      ],
      [
        "Ġt",
        "h"
      ],
      [
        "á»",
        "Ľ"
      ],
      [
        "Ļ",
        "Ĥ"
      ],
      [
        "is",
        "e"
      ],
      [
        "ãģ£",
        "ãģŁãĤī"
      ],
      [
        "Ġre",
        "la"
      ],
      [
        "Ġrela",
        "x"
      ],
      [
        "há»",
        "ī"
      ],
      [
        "Æ",
        "¡"
      ],
      [
        "Ġc",
        "Ã³"
      ],
      [
        "a",
        "me"
      ],
      [
        "Ġä",
        "»"
      ],
      [
        "Ġ",
        "ç"
      ],
      [
        "re",
        "a"
      ],
      [
        "Ġoff",
        "ice"
      ],
      [
        "Ã",
        "¬"
      ],
      [
        "m",
        "i"
      ],
      [
        "oo",
        "k"
      ],
      [
        "al",
        "k"
      ],
      [
        "s",
        "ide"
      ],
      [
        "ĠJ",
        "e"
      ],
      [
        "Ġm",
        "o"
      ],
      [
        "Ġp",
        "hÃ"
      ],
      [
        "Ġng",
        "há»ī"
      ],
      [
        "Ġg",
        "i"
      ],
      [
        "r",
        "ow"
      ],
      [
        "Ã",
        "¨"
      ],
      [
        "c",
        "ise"
      ],
      [
        "er",
        "cise"
      ],
      [
        "ä¼",
        "ĳ"
      ],
      [
        "Ġfa",
        "is"
      ],
      [
        "Ġex",
        "ercise"
      ],
      [
        "e",
        "p"
      ],
      [
        "l",
        "i"
      ],
      [
        "ĠI",
        "n"
      ],
      [
        "Ġr",
        "ain"
      ],
      [
        "Ġti",
        "me"
      ],
      [
        "Æ¡",
        "i"
      ],
      [
        "Ġf",
        "ee"
      ],
      [
        "Ġfee",
        "l"
      ],
      [
        "in",
        "k"
      ],
      [
        "Ġfa",
        "mi"
      ],
      [
        "Ġdr",
        "ink"
      ],
      [
        "á»į",
        "c"
      ],
      [
        "r",
        "o"
      ],
      [
        "º",
        "c"
      ],
      [
        "is",
        "on"
      ],
      [
        "Ġma",
        "ison"
      ],
      [
        "¦",
        "ĭ"
      ],
      [
        "ãģ",
        "Ĩ"
      ],
      [
        "ãĤĴè",
        "¦ĭ"
      ],
      [
        "ãģĦ",
        "ãĤĭ"
      ],
      [
        "Ġk",
        "hÃ´"
      ],
      [
        "ĠkhÃ´",
        "ng"
      ],
      [
        "Ġ",
        "C"
      ],
      [
        "at",
        "her"
      ],
      [
        "Ġx",
        "em"
      ],
      [
        "ãģ«",
        "è¡Įãģ"
      ],
      [
        "é£",
        "²"
      ],
      [
        "Ã",
        "ºc"
      ],
      [
        "Ġg",
        "áº·"
      ],
      [
        "Ġtravai",
        "lle"
      ],
      [
        "Ġgáº·",
        "p"
      ],
      [
        "Ġ",
        "y"
      ],
      [
        "Ġno",
        "t"
      ],
      [
        "Ġre",
        "ad"
      ],
      [
        "Ã¬",
        "nh"
      ],
      [
        "e",
        "u"
      ],
      [
        "å®¶",
        "ãģ«"
      ],
      [
        "rea",
        "k"
      ],
      [
        "å½¼å¥³ãģ¯",
        "å"
      ],
      [
        "Æ°",
        "a"
      ],
      [
        "o",
        "pp"
      ],
      [
        "Ġsh",
        "opp"
      ],
      [
        "Ġshopp",
        "ing"
      ],
      [
        "ãģ",
        "¨"
      ],
      [
        "Ġd",
        "ay"
      ],
      [
        "Ġwe",
        "ather"
      ],
      [
        "er",
        "day"
      ],
      [
        "est",
        "erday"
      ],
      [
        "re",
        "s"
      ],
      [
        "Ġg",
        "et"
      ],
      [
        "Ġg",
        "ame"
      ],
      [
        "Ġæ",
        "ĺ"
      ],
      [
        "Ġy",
        "esterday"
      ],
      [
        "e",
        "s"
      ],
      [
        "l",
        "d"
      ],
      [
        "æ",
        "ĻĤ"
      ],
      [
        "Ġt",
        "há»"
      ],
      [
        "å½¼ãģ¯",
        "å"
      ],
      [
        "s",
        "pital"
      ],
      [
        "Ġho",
        "spital"
      ],
      [
        "m",
        "or"
      ],
      [
        "mor",
        "row"
      ],
      [
        "o",
        "is"
      ],
      [
        "ãĤ",
        "¹"
      ],
      [
        "Ġu",
        "á»ĳ"
      ],
      [
        "Ġuá»ĳ",
        "ng"
      ],
      [
        "Ń",
        "¦"
      ],
      [
        "Ġn",
        "h"
      ],
      [
        "Ġto",
        "morrow"
      ],
      [
        "Ġmu",
        "s"
      ],
      [
        "ä",
        "¸"
      ],
      [
        "ãģ",
        "¦"
      ],
      [
        "æ",
        "ľ"
      ],
      [
        "Ã´",
        "m"
      ],
      [
        "ĠT",
        "Ã´i"
      ],
      [
        "ĠH",
        "Ã´m"
      ],
      [
        "n",
        "ing"
      ],
      [
        "Ġst",
        "ore"
      ],
      [
        "Ġb",
        "reak"
      ],
      [
        "Ġp",
        "l"
      ],
      [
        "ĠT",
        "V"
      ],
      [
        "áº¡",
        "n"
      ],
      [
        "Ġso",
        "me"
      ],
      [
        "Ġs",
        "le"
      ],
      [
        "ĠC",
        "Ã´"
      ],
      [
        "Ġsle",
        "ep"
      ],
      [
        "è",
        "²·"
      ],
      [
        "Ġ",
        "qu"
      ],
      [
        "i",
        "g"
      ],
      [
        "v",
        "ie"
      ],
      [
        "á»",
        "Ļ"
      ],
      [
        "áº¿",
        "t"
      ],
      [
        "äº",
        "ĭ"
      ],
      [
        "Ġmo",
        "vie"
      ],
      [
        "ãĤĴè¦ĭ",
        "ãģ¾ãģĻ"
      ],
      [
        "Ġä»",
        "Ĭ"
      ],
      [
        "æ",
        "ĺ"
      ],
      [
        "Ġs",
        "Ã¡"
      ],
      [
        "Ġl",
        "is"
      ],
      [
        "Ġto",
        "day"
      ],
      [
        "ãĤĴ",
        "é£²"
      ],
      [
        "ãĤĴé£²",
        "ãģ¿ãģ¾ãģĻ"
      ],
      [
        "Ġn",
        "ow"
      ],
      [
        "Ġco",
        "ld"
      ],
      [
        "ĠE",
        "lle"
      ],
      [
        "Ġb",
        "ook"
      ],
      [
        "Ġb",
        "áº¡n"
      ],
      [
        "Ĺ",
        "ħ"
      ],
      [
        "ĠH",
        "á»į"
      ],
      [
        "Ġm",
        "ai"
      ],
      [
        "ĠA",
        "nh"
      ],
      [
        "ı",
        "ĭ"
      ],
      [
        "áº",
        "¯"
      ],
      [
        "Ġw",
        "alk"
      ],
      [
        "°",
        "Ĺ"
      ],
      [
        "ãģ«è¡Įãģ",
        "įãģ¾ãģĻ"
      ],
      [
        "Ġt",
        "em"
      ],
      [
        "Ġtr",
        "á»Ŀi"
      ],
      [
        "Ġu",
        "p"
      ],
      [
        "ĠL",
        "Ãºc"
      ],
      [
        "Ġtem",
        "p"
      ],
      [
        "ç",
        "ī"
      ],
      [
        "i",
        "on"
      ],
      [
        "ãģ",
        "Ĭ"
      ],
      [
        "å½¼",
        "ãĤī"
      ],
      [
        "c",
        "he"
      ],
      [
        "Ġmang",
        "e"
      ],
      [
        "å½¼ãĤī",
        "ãģ¯"
      ],
      [
        "Ġd",
        "o"
      ],
      [
        "ĠIl",
        "s"
      ],
      [
        "Ġv",
        "a"
      ],
      [
        "éģ",
        "Ķ"
      ],
      [
        "ıĭ",
        "éģĶ"
      ],
      [
        "r",
        "y"
      ],
      [
        "ķ",
        "äºĭ"
      ],
      [
        "ar",
        "ly"
      ],
      [
        "ãģĮãģ",
        "Ĥ"
      ],
      [
        "'",
        "t"
      ],
      [
        "c",
        "u"
      ],
      [
        "e",
        "d"
      ],
      [
        "Y",
        "ou"
      ],
      [
        "o",
        "d"
      ],
      [
        "v",
        "er"
      ],
      [
        "Ġf",
        "or"
      ],
      [
        "Ġf",
        "ai"
      ],
      [
        "or",
        "t"
      ],
      [
        "Ġfami",
        "ly"
      ],
      [
        "hÃ",
        "¨"
      ],
      [
        "Ġg",
        "iá»"
      ],
      [
        "in",
        "e"
      ],
      [
        "Ġgiá»",
        "Ŀ"
      ],
      [
        "Ġh",
        "á»įc"
      ],
      [
        "ãĤ",
        "¯"
      ],
      [
        "ãĤ",
        "Ĭ"
      ],
      [
        "or",
        "d"
      ],
      [
        "Ãł",
        "y"
      ],
      [
        "Ã",
        "¢"
      ],
      [
        "é",
        "Ļ"
      ],
      [
        "v",
        "e"
      ],
      [
        "Ãł",
        "i"
      ],
      [
        "ª",
        "ãģĳãĤĮãģ°"
      ],
      [
        "u",
        "i"
      ],
      [
        "Ġw",
        "ee"
      ],
      [
        "á»ĳ",
        "i"
      ],
      [
        "å®¶",
        "ãģ§"
      ],
      [
        "ãĥ¼",
        "ãĥ"
      ],
      [
        "æĻĤ",
        "ãģ¯"
      ],
      [
        "ãģĮãģĤ",
        "ãĤĮãģ°"
      ],
      [
        "Ġme",
        "d"
      ],
      [
        "çī",
        "©"
      ],
      [
        "e",
        "nd"
      ],
      [
        "ĭ",
        "nh"
      ],
      [
        "Ġa",
        "l"
      ],
      [
        "ĠÄĳá»",
        "ĭnh"
      ],
      [
        "Ġpl",
        "ay"
      ],
      [
        "hÃ¨",
        "te"
      ],
      [
        "ĩ",
        "º"
      ],
      [
        "Ġm",
        "one"
      ],
      [
        "å®¶ãģ«",
        "ãģĦãģ¾ãģĻ"
      ],
      [
        "Ġmone",
        "y"
      ],
      [
        "ĩ",
        "nh"
      ],
      [
        "Ľ",
        "¨"
      ],
      [
        "Ġbá»",
        "ĩnh"
      ],
      [
        "g",
        "ar"
      ],
      [
        "Ġe",
        "arly"
      ],
      [
        "Ġre",
        "gar"
      ],
      [
        "Ġm",
        "Æ°a"
      ],
      [
        "re",
        "au"
      ],
      [
        "Ġbu",
        "reau"
      ],
      [
        "Ġ",
        "P"
      ],
      [
        "Ġ",
        "You"
      ],
      [
        "Ġc",
        "al"
      ],
      [
        "Ġn",
        "ee"
      ],
      [
        "Ġho",
        "t"
      ],
      [
        "Ġnee",
        "d"
      ],
      [
        "a",
        "st"
      ],
      [
        "o",
        "Ãłi"
      ],
      [
        "t",
        "en"
      ],
      [
        "ģ",
        "n"
      ],
      [
        "Ġng",
        "oÃłi"
      ],
      [
        "Ġlis",
        "ten"
      ],
      [
        "Ġtemp",
        "s"
      ],
      [
        "g",
        "Ãły"
      ],
      [
        "Ġe",
        "n"
      ],
      [
        "ĠN",
        "gÃły"
      ],
      [
        "n",
        "e"
      ],
      [
        "n",
        "er"
      ],
      [
        "æ",
        "ł"
      ],
      [
        "æł",
        "¡"
      ],
      [
        "c",
        "e"
      ],
      [
        "¤",
        "ĸ"
      ],
      [
        "ãģ",
        "įãģ¾ãģĻ"
      ],
      [
        "ãĥ",
        "ĥ"
      ],
      [
        "é£Łãģ¹",
        "ãģ¾ãģĻ"
      ],
      [
        "Ġfeel",
        "ing"
      ],
      [
        "ig",
        "h"
      ],
      [
        "h",
        "ing"
      ],
      [
        "m",
        "is"
      ],
      [
        "Ġm",
        "or"
      ],
      [
        "Ġw",
        "it"
      ],
      [
        "Ġn",
        "Ã³"
      ],
      [
        "Ġthe",
        "re"
      ],
      [
        "Ġmor",
        "ning"
      ],
      [
        "Ġwit",
        "h"
      ],
      [
        "o",
        "se"
      ],
      [
        "qu",
        "e"
      ],
      [
        "²",
        "ng"
      ],
      [
        "Ä",
        "ĥn"
      ],
      [
        "å",
        "ĭ"
      ],
      [
        "Ġv",
        "Äĥn"
      ],
      [
        "ic",
        "k"
      ],
      [
        "ĠphÃ",
        "²ng"
      ],
      [
        "©",
        "ãģĹãģ¾ãģĻ"
      ],
      [
        "æ",
        "°Ĺ"
      ],
      [
        "Ġt",
        "áºŃ"
      ],
      [
        "Ġm",
        "Ã¬nh"
      ],
      [
        "Ġin",
        "side"
      ],
      [
        "Ġé",
        "Ľ¨"
      ],
      [
        "ĠtáºŃ",
        "p"
      ],
      [
        "ä",
        "»"
      ],
      [
        "ä¸",
        "Ģ"
      ],
      [
        "Ġtr",
        "Æ°"
      ],
      [
        "á»Ŀ",
        "ng"
      ],
      [
        "ĠtrÆ°",
        "á»Ŀng"
      ],
      [
        "Ġl",
        "un"
      ],
      [
        "Ġp",
        "hi"
      ],
      [
        "Ġday",
        "s"
      ],
      [
        "Ġmovie",
        "s"
      ],
      [
        "Ġregar",
        "de"
      ],
      [
        "Ġlun",
        "ch"
      ],
      [
        "Ġphi",
        "m"
      ],
      [
        "l",
        "l"
      ],
      [
        "Ġs",
        "ick"
      ],
      [
        "ĠW",
        "e"
      ],
      [
        "ãģĮ",
        "æ"
      ],
      [
        "Ġva",
        "is"
      ],
      [
        "Ġd",
        "Ã©"
      ],
      [
        "Ń¦",
        "æł¡"
      ],
      [
        "ç",
        "Ķ"
      ],
      [
        "ĥ",
        "į"
      ],
      [
        "Ġl",
        "ate"
      ],
      [
        "Ġp",
        "re"
      ],
      [
        "ff",
        "ee"
      ],
      [
        "Ġco",
        "ffee"
      ],
      [
        "çĶ",
        "»"
      ],
      [
        "ãģ",
        "®"
      ],
      [
        "Ġc",
        "he"
      ],
      [
        "o",
        "le"
      ],
      [
        "Ã©c",
        "ole"
      ],
      [
        "i",
        "p"
      ],
      [
        "o",
        "i"
      ],
      [
        "Ġ",
        "ãģĬ"
      ],
      [
        "Ġ",
        "ord"
      ],
      [
        "áº",
        "£"
      ],
      [
        "Ġd",
        "á»"
      ],
      [
        "Ġb",
        "e"
      ],
      [
        "ãģĦ",
        "ãĤĮãģ°"
      ],
      [
        "Æ°",
        "á»Ľ"
      ],
      [
        "our",
        "s"
      ],
      [
        "Ġmus",
        "ic"
      ],
      [
        "Ġord",
        "er"
      ],
      [
        "b",
        "le"
      ],
      [
        "Ġle",
        "ar"
      ],
      [
        "Ġt",
        "iá»"
      ],
      [
        "re",
        "at"
      ],
      [
        "Ġv",
        "ac"
      ],
      [
        "Ġout",
        "side"
      ],
      [
        "Ġlear",
        "n"
      ],
      [
        "Ġtiá»",
        "ģn"
      ],
      [
        "å",
        "¾"
      ],
      [
        "Ġd",
        "in"
      ],
      [
        "äº",
        "º"
      ],
      [
        "Ġdin",
        "ner"
      ],
      [
        "c",
        "k"
      ],
      [
        "æ",
        "¥"
      ],
      [
        "ł",
        "çĶ»"
      ],
      [
        "Ń",
        "a"
      ],
      [
        "á»",
        "§"
      ],
      [
        "á»",
        "Ńa"
      ],
      [
        "Ġc",
        "á»Ńa"
      ],
      [
        "at",
        "ion"
      ],
      [
        "ĠW",
        "hi"
      ],
      [
        "Ġtr",
        "ave"
      ],
      [
        "Ġng",
        "he"
      ],
      [
        "Ġng",
        "á»§"
      ],
      [
        "Ġgame",
        "s"
      ],
      [
        "ĠWhi",
        "le"
      ],
      [
        "Ġtrave",
        "l"
      ],
      [
        "Ġb",
        "áºŃ"
      ],
      [
        "Ġng",
        "Æ¡i"
      ],
      [
        "igh",
        "t"
      ],
      [
        "f",
        "li"
      ],
      [
        "u",
        "le"
      ],
      [
        "¥",
        "c"
      ],
      [
        "å",
        "ĩº"
      ],
      [
        "Ġ",
        "B"
      ],
      [
        "ãĤ",
        "³"
      ],
      [
        "Ġa",
        "mis"
      ],
      [
        "Ġf",
        "in"
      ],
      [
        "Ġn",
        "ight"
      ],
      [
        "ing",
        "s"
      ],
      [
        "on",
        "t"
      ],
      [
        "et",
        "fli"
      ],
      [
        "hÃ´",
        "pital"
      ],
      [
        "Ġthá»",
        "ĥ"
      ],
      [
        "Ĺħ",
        "éĻ"
      ],
      [
        "Ġdá»",
        "¥c"
      ],
      [
        "etfli",
        "x"
      ],
      [
        "ĹħéĻ",
        "¢"
      ],
      [
        "Ġviá»ĩ",
        "n"
      ],
      [
        "i",
        "que"
      ],
      [
        "p",
        "r"
      ],
      [
        "or",
        "s"
      ],
      [
        "ãģ«",
        "ä¼ļ"
      ],
      [
        "Ġæ",
        "ļ"
      ],
      [
        "Ġco",
        "m"
      ],
      [
        "Ã¨",
        "s"
      ],
      [
        "Ġre",
        "p"
      ],
      [
        "ĠÄĳá»",
        "ĵ"
      ],
      [
        "ãģ«ä¼ļ",
        "ãģĦãģ¾ãģĻ"
      ],
      [
        "ãģ",
        "ĭ"
      ],
      [
        "Ġs",
        "n"
      ],
      [
        "Ġm",
        "á»Ļ"
      ],
      [
        "Ġd",
        "áº¡"
      ],
      [
        "ĠS",
        "au"
      ],
      [
        "æĹ¥",
        "ãģ¯"
      ],
      [
        "é£Łãģ¹",
        "ãĤĭ"
      ],
      [
        "res",
        "s"
      ],
      [
        "Ġwee",
        "ke"
      ],
      [
        "å¾",
        "Į"
      ],
      [
        "Ġmá»Ļ",
        "t"
      ],
      [
        "Ġdáº¡",
        "o"
      ],
      [
        "Ġde",
        "c"
      ],
      [
        "¬",
        "ãĤĴè"
      ],
      [
        "d",
        "ule"
      ],
      [
        "¯",
        "Ŀ"
      ],
      [
        "Ġs",
        "che"
      ],
      [
        "Ġb",
        "ois"
      ],
      [
        "ãĥ",
        "©"
      ],
      [
        "ãĥ",
        "¬"
      ],
      [
        "ãĤĴ",
        "æ"
      ],
      [
        "Ġå",
        "¤"
      ],
      [
        "Ġcal",
        "l"
      ],
      [
        "Ġsche",
        "dule"
      ],
      [
        "q",
        "ua"
      ],
      [
        "Ġ",
        "qua"
      ],
      [
        "Ġal",
        "one"
      ],
      [
        "k",
        "ip"
      ],
      [
        "Ġ",
        "hÃł"
      ],
      [
        "ĭ",
        "åĭ"
      ],
      [
        "ķ",
        "ãģĹãģ¾ãģĻ"
      ],
      [
        "Ġt",
        "ur"
      ],
      [
        "Ġs",
        "kip"
      ],
      [
        "Ġn",
        "Æ°á»Ľ"
      ],
      [
        "ãģĹ",
        "ãģĳãĤĮãģ°"
      ],
      [
        "ĠA",
        "pr"
      ],
      [
        "éģ",
        "ĭåĭ"
      ],
      [
        "ãĥĥ",
        "ãĤ¯"
      ],
      [
        "ĥį",
        "ãģı"
      ],
      [
        "ĠhÃł",
        "ng"
      ],
      [
        "Ġtur",
        "n"
      ],
      [
        "ĠApr",
        "Ã¨s"
      ],
      [
        "éģĭåĭ",
        "ķãģĹãģ¾ãģĻ"
      ],
      [
        "ç",
        "¤"
      ],
      [
        "pp",
        "re"
      ],
      [
        "ä¼ļ",
        "ç¤"
      ],
      [
        "g",
        "et"
      ],
      [
        "ä¼ļç¤",
        "¾ãģ"
      ],
      [
        "£",
        "æ"
      ],
      [
        "æ",
        "ķ"
      ],
      [
        "Ń",
        "©ãģĹãģ¾ãģĻ"
      ],
      [
        "Ġh",
        "u"
      ],
      [
        "Ġn",
        "ay"
      ],
      [
        "Ġbu",
        "á»"
      ],
      [
        "æĺ",
        "łçĶ»"
      ],
      [
        "ĠnÃ³",
        "ng"
      ],
      [
        "£æ",
        "Ń©ãģĹãģ¾ãģĻ"
      ],
      [
        "æķ",
        "£æŃ©ãģĹãģ¾ãģĻ"
      ],
      [
        "æĺłçĶ»",
        "ãĤĴè¦ĭãģ¾ãģĻ"
      ],
      [
        "i",
        "er"
      ],
      [
        "Ġ",
        "è"
      ],
      [
        "ic",
        "ine"
      ],
      [
        "Ġmed",
        "icine"
      ],
      [
        "m",
        "ain"
      ],
      [
        "Ġde",
        "main"
      ],
      [
        "h",
        "ui"
      ],
      [
        "i",
        "nd"
      ],
      [
        "j",
        "our"
      ],
      [
        "o",
        "y"
      ],
      [
        "o",
        "ng"
      ],
      [
        "r",
        "á»Ŀi"
      ],
      [
        "İ",
        "æĹ¥"
      ],
      [
        "Ġs",
        "p"
      ],
      [
        "Ġf",
        "il"
      ],
      [
        "Ġw",
        "ind"
      ],
      [
        "Ġp",
        "la"
      ],
      [
        "ĠT",
        "rá»Ŀi"
      ],
      [
        "Ġr",
        "a"
      ],
      [
        "Ġch",
        "Æ¡i"
      ],
      [
        "end",
        "ant"
      ],
      [
        "ĠP",
        "endant"
      ],
      [
        "¤ĸ",
        "åĩº"
      ],
      [
        "Ġpre",
        "nds"
      ],
      [
        "jour",
        "d"
      ],
      [
        "Ġfil",
        "m"
      ],
      [
        "¨",
        "æĹ¥"
      ],
      [
        "Ġé",
        "Ģ"
      ],
      [
        "ĠsÃ¡",
        "ch"
      ],
      [
        "a",
        "de"
      ],
      [
        "ç",
        "µ"
      ],
      [
        "ç",
        "ĹħéĻ¢"
      ],
      [
        "Ġ",
        "å½¼ãĤīãģ¯"
      ],
      [
        "ģ",
        "´"
      ],
      [
        "ãĤ",
        "ģ"
      ],
      [
        "Ġa",
        "n"
      ],
      [
        "Ġa",
        "r"
      ],
      [
        "Ġl",
        "áº¡"
      ],
      [
        "Ġh",
        "ier"
      ],
      [
        "Ġp",
        "as"
      ],
      [
        "ĠN",
        "etflix"
      ],
      [
        "ãģĦ",
        "ãģŁãĤī"
      ],
      [
        "Ġgo",
        "od"
      ],
      [
        "Ġsu",
        "n"
      ],
      [
        "ãĤĴè",
        "ģ´"
      ],
      [
        "ãģĮãģ",
        "ªãģĳãĤĮãģ°"
      ],
      [
        "è²·",
        "ãģĦ"
      ],
      [
        "Ġau",
        "jourd"
      ],
      [
        "Ã¢",
        "y"
      ],
      [
        "g",
        "as"
      ],
      [
        "r",
        "Ã©"
      ],
      [
        "Ġma",
        "gas"
      ],
      [
        "áº¯",
        "m"
      ],
      [
        "Ġmagas",
        "in"
      ],
      [
        "o",
        "m"
      ],
      [
        "Ã",
        "£"
      ],
      [
        "Ġs",
        "áº¯m"
      ],
      [
        "Ġa",
        "v"
      ],
      [
        "re",
        "e"
      ],
      [
        "Ġc",
        "le"
      ],
      [
        "Ġc",
        "Ãł"
      ],
      [
        "Ġl",
        "á»"
      ],
      [
        "Ġg",
        "r"
      ],
      [
        "Ġæ",
        "Ĺ"
      ],
      [
        "ĠphÃ",
        "ª"
      ],
      [
        "ä»",
        "ķäºĭ"
      ],
      [
        "l",
        "ow"
      ],
      [
        "me",
        "nt"
      ],
      [
        "Ġwork",
        "ing"
      ],
      [
        "Ġä»Ĭ",
        "æĹ¥"
      ],
      [
        "ĠB",
        "Ã¢y"
      ],
      [
        "ãģŁ",
        "ãģĦ"
      ],
      [
        "ıĭéģĶ",
        "ãģ«ä¼ļãģĦãģ¾ãģĻ"
      ],
      [
        "c",
        "ont"
      ],
      [
        "n",
        "cont"
      ],
      [
        "º",
        "Ĺ"
      ],
      [
        "Ī",
        "å®"
      ],
      [
        "ĵ",
        "n"
      ],
      [
        "Ġc",
        "a"
      ],
      [
        "is",
        "h"
      ],
      [
        "Ġw",
        "ant"
      ],
      [
        "Ġre",
        "ncont"
      ],
      [
        "ĠÄĳ",
        "Ã³"
      ],
      [
        "ä¼ļ",
        "ãģĨ"
      ],
      [
        "Ġhu",
        "ng"
      ],
      [
        "è²·ãģĦ",
        "çī©"
      ],
      [
        "Īå®",
        "ļ"
      ],
      [
        "s",
        "y"
      ],
      [
        "å",
        "ĥįãģı"
      ],
      [
        "Ġs",
        "eu"
      ],
      [
        "Ġbu",
        "sy"
      ],
      [
        "ĵ",
        "ãģ¨"
      ],
      [
        "ãģ",
        "ĵãģ¨"
      ],
      [
        "Ġå",
        "¿"
      ],
      [
        "Ġæĺ",
        "¨æĹ¥"
      ],
      [
        "Ġrencont",
        "re"
      ],
      [
        "Ġs",
        "á»Ľ"
      ],
      [
        "ãĤ",
        "ı"
      ],
      [
        "or",
        "m"
      ],
      [
        "Ġst",
        "orm"
      ],
      [
        "ãģª",
        "ãģ£ãģŁãĤī"
      ],
      [
        "Ġr",
        "un"
      ],
      [
        "ac",
        "k"
      ],
      [
        "Ġæĺ",
        "İæĹ¥"
      ],
      [
        "ĠsÃ¡",
        "ng"
      ],
      [
        "Ġfai",
        "t"
      ],
      [
        "Ġvac",
        "ation"
      ],
      [
        "Ġsn",
        "ack"
      ],
      [
        "Ġweeke",
        "nd"
      ],
      [
        "çµ",
        "Ĥ"
      ],
      [
        "Ġseu",
        "l"
      ],
      [
        "Ġsá»Ľ",
        "m"
      ],
      [
        "Ġe",
        "st"
      ],
      [
        "it",
        "e"
      ],
      [
        "æľ",
        "¬ãĤĴè"
      ],
      [
        "äºº",
        "ãģ§"
      ],
      [
        "c",
        "hÃ¨te"
      ],
      [
        "m",
        "Ã¨"
      ],
      [
        "x",
        "i"
      ],
      [
        "Ĵ",
        "ãĥ¼"
      ],
      [
        "hÃ",
        "¡"
      ],
      [
        "Ġa",
        "chÃ¨te"
      ],
      [
        "Ġb",
        "ad"
      ],
      [
        "Ġp",
        "o"
      ],
      [
        "Ġp",
        "ro"
      ],
      [
        "ãĤĴ",
        "ãģĹãģ¾ãģĻ"
      ],
      [
        "áº¡",
        "c"
      ],
      [
        "Ġmang",
        "er"
      ],
      [
        "Ġnh",
        "áº¡c"
      ],
      [
        "ãĥ¼ãĥ",
        "Ĵãĥ¼"
      ],
      [
        "ãĤ³",
        "ãĥ¼ãĥĴãĥ¼"
      ],
      [
        "Ġpla",
        "n"
      ],
      [
        "mÃ¨",
        "ne"
      ],
      [
        "Ġpro",
        "mÃ¨ne"
      ],
      [
        "ãĤ³ãĥ¼ãĥĴãĥ¼",
        "ãĤĴé£²ãģ¿ãģ¾ãģĻ"
      ],
      [
        "u",
        "re"
      ],
      [
        "nt",
        "en"
      ],
      [
        "nten",
        "ant"
      ],
      [
        "y",
        "áº¿t"
      ],
      [
        "ħ",
        "¹"
      ],
      [
        "Ġm",
        "al"
      ],
      [
        "Ġf",
        "ree"
      ],
      [
        "Ġrain",
        "s"
      ],
      [
        "Ġqu",
        "yáº¿t"
      ],
      [
        "ãģ¦",
        "ãģĦãĤĭ"
      ],
      [
        "Ġmai",
        "ntenant"
      ],
      [
        "ãģ",
        "ł"
      ],
      [
        "Ġl",
        "i"
      ],
      [
        "b",
        "re"
      ],
      [
        "Ã",
        "ª"
      ],
      [
        "é",
        "ĸ"
      ],
      [
        "Ġhe",
        "at"
      ],
      [
        "Ġn",
        "e"
      ],
      [
        "ãĥ",
        "ª"
      ],
      [
        "ĠE",
        "n"
      ],
      [
        "ãĤ",
        "ĵ"
      ],
      [
        "æ°Ĺ",
        "ãģªãĤī"
      ],
      [
        "ĠbáºŃ",
        "n"
      ],
      [
        "Ġdec",
        "ide"
      ],
      [
        "Ġm",
        "at"
      ],
      [
        "Ġd",
        "on"
      ],
      [
        "Ġå¿",
        "Ļ"
      ],
      [
        "Ġmat",
        "in"
      ],
      [
        "u",
        "x"
      ],
      [
        "u",
        "ie"
      ],
      [
        "¯",
        "a"
      ],
      [
        "ç",
        "Ŀ"
      ],
      [
        "Ŀ",
        "i"
      ],
      [
        "Ġt",
        "alk"
      ],
      [
        "Ġt",
        "á»ĳi"
      ],
      [
        "Ġa",
        "ppre"
      ],
      [
        "ou",
        "nd"
      ],
      [
        "se",
        "d"
      ],
      [
        "ãģı",
        "ãģªãģ£ãģŁãĤī"
      ],
      [
        "Ġbá»",
        "¯a"
      ],
      [
        "Ġtravai",
        "l"
      ],
      [
        "Ġth",
        "ings"
      ],
      [
        "ro",
        "ng"
      ],
      [
        "res",
        "sed"
      ],
      [
        "Ġthá»",
        "Ŀi"
      ],
      [
        "á»Ļ",
        "n"
      ],
      [
        "Ġrep",
        "ose"
      ],
      [
        "Ġar",
        "ound"
      ],
      [
        "ĠÄĳÃ³",
        "i"
      ],
      [
        "çµĤ",
        "ãĤı"
      ],
      [
        "çĿ",
        "Ģ"
      ],
      [
        "i",
        "r"
      ],
      [
        "Ġp",
        "ar"
      ],
      [
        "c",
        "cu"
      ],
      [
        "f",
        "ast"
      ],
      [
        "Ġo",
        "ccu"
      ],
      [
        "á»ĳ",
        "n"
      ],
      [
        "Ġmu",
        "á»ĳn"
      ],
      [
        "Ġbreak",
        "fast"
      ],
      [
        "Ġoccu",
        "p"
      ],
      [
        "g",
        "e"
      ],
      [
        "r",
        "ate"
      ],
      [
        "§",
        "n"
      ],
      [
        "³",
        "æ¥"
      ],
      [
        "½",
        "ãĤĴèģ´"
      ],
      [
        "Ł",
        "³æ¥"
      ],
      [
        "áº",
        "§n"
      ],
      [
        "ãĤĴ",
        "é£Łãģ¹ãģ¾ãģĻ"
      ],
      [
        "Ġo",
        "ver"
      ],
      [
        "æĹ",
        "ı"
      ],
      [
        "Ã©c",
        "out"
      ],
      [
        "Ġmus",
        "ique"
      ],
      [
        "Ġláº¡",
        "nh"
      ],
      [
        "Ł³æ¥",
        "½ãĤĴèģ´"
      ],
      [
        "Ġv",
        "eu"
      ],
      [
        "Ġle",
        "s"
      ],
      [
        "Ġä",
        "¸"
      ],
      [
        "è²·",
        "ãģĨ"
      ],
      [
        "u",
        "t"
      ],
      [
        "Ġp",
        "le"
      ],
      [
        "ĠÄĳ",
        "á»įc"
      ],
      [
        "Ġä",
        "½"
      ],
      [
        "è¡Įãģ",
        "ı"
      ],
      [
        "ä¼ļç¤¾ãģ",
        "§"
      ],
      [
        "a",
        "re"
      ],
      [
        "e",
        "a"
      ],
      [
        "l",
        "f"
      ],
      [
        "t",
        "hing"
      ],
      [
        "Ġt",
        "hi"
      ],
      [
        "Ġt",
        "ea"
      ],
      [
        "Ġc",
        "u"
      ],
      [
        "Ġv",
        "ois"
      ],
      [
        "Ġle",
        "ave"
      ],
      [
        "se",
        "lf"
      ],
      [
        "á»ĳ",
        "t"
      ],
      [
        "Ġmy",
        "self"
      ],
      [
        "Ġun",
        "e"
      ],
      [
        "áº·",
        "t"
      ],
      [
        "Ġä»",
        "ķäºĭ"
      ],
      [
        "ä¼ĳ",
        "ãģ¿ãģ¾ãģĻ"
      ],
      [
        "Ġfami",
        "lle"
      ],
      [
        "Ġsome",
        "thing"
      ],
      [
        "ãĤĬ",
        "ãģ¾ãģĻ"
      ],
      [
        "Ġfin",
        "ish"
      ],
      [
        "Ġhung",
        "ry"
      ],
      [
        "è²·ãģĦçī©",
        "ãģ«è¡Įãģįãģ¾ãģĻ"
      ],
      [
        "e",
        "ment"
      ],
      [
        "Ł",
        "ãģı"
      ],
      [
        "ãģ",
        "į"
      ],
      [
        "Ġp",
        "rÃ©"
      ],
      [
        "nt",
        "ement"
      ],
      [
        "Ġle",
        "ntement"
      ],
      [
        "ĠprÃ©",
        "v"
      ],
      [
        "a",
        "ng"
      ],
      [
        "®",
        "¶"
      ],
      [
        "Ġwork",
        "s"
      ],
      [
        "Ġå",
        "®¶"
      ],
      [
        "r",
        "i"
      ],
      [
        "²",
        "ãĥ¼ãĥ"
      ],
      [
        "ĳ",
        "m"
      ],
      [
        "ł",
        "ãĤĴãģĹãģ¾ãģĻ"
      ],
      [
        "ãģ",
        "¶"
      ],
      [
        "Ġs",
        "ors"
      ],
      [
        "ãĤ",
        "²ãĥ¼ãĥ"
      ],
      [
        "Ġd",
        "Ã©c"
      ],
      [
        "Ġá»",
        "ĳm"
      ],
      [
        "Ġstay",
        "s"
      ],
      [
        "æĹ¥",
        "ãģªãĤī"
      ],
      [
        "Ġwatch",
        "ing"
      ],
      [
        "ãĤ¹",
        "ãĥ"
      ],
      [
        "Ń¦",
        "ãģ¶"
      ],
      [
        "ver",
        "y"
      ],
      [
        "Ġbuá»",
        "ĵn"
      ],
      [
        "ãĤ²ãĥ¼ãĥ",
        "łãĤĴãģĹãģ¾ãģĻ"
      ],
      [
        "ĠdÃ©c",
        "ide"
      ],
      [
        "a",
        "nh"
      ],
      [
        "Ġnh",
        "anh"
      ],
      [
        "ä¸Ģ",
        "äººãģ§"
      ],
      [
        "Ń¦æł¡",
        "ãģ§"
      ],
      [
        "ª",
        "Ń"
      ],
      [
        "Ġ",
        "ãĤ"
      ],
      [
        "ªŃ",
        "ãģ¿ãģ¾ãģĻ"
      ],
      [
        "c",
        "ast"
      ],
      [
        "h",
        "one"
      ],
      [
        "¯",
        "Ĵ"
      ],
      [
        "Ġ",
        "ãĥ"
      ],
      [
        "Ġ",
        "å½¼å¥³ãģ¯"
      ],
      [
        "Ġ",
        "å½¼ãģ¯"
      ],
      [
        "ĩ",
        "ĳ"
      ],
      [
        "Ġs",
        "ee"
      ],
      [
        "á»",
        "ĩ"
      ],
      [
        "Ġb",
        "ore"
      ],
      [
        "Ġw",
        "ar"
      ],
      [
        "Ġj",
        "ours"
      ],
      [
        "Ġp",
        "od"
      ],
      [
        "ou",
        "s"
      ],
      [
        "ãģĦ",
        "æĻĤãģ¯"
      ],
      [
        "Ġgo",
        "es"
      ],
      [
        "ĠT",
        "rong"
      ],
      [
        "Ġæ",
        "ĻĤ"
      ],
      [
        "Ġå",
        "¯Ĵ"
      ],
      [
        "Ġta",
        "xi"
      ],
      [
        "äº",
        "Īå®ļ"
      ],
      [
        "ĠL",
        "es"
      ],
      [
        "Ġmu",
        "á»Ļn"
      ],
      [
        "ãĤ¹",
        "ãģĹãģ¾ãģĻ"
      ],
      [
        "áº¯",
        "ng"
      ],
      [
        "Ġlisten",
        "ing"
      ],
      [
        "Ġæļ",
        "ĳ"
      ],
      [
        "ãĥ©",
        "ãĥĥãĤ¯"
      ],
      [
        "æľ¬ãĤĴè",
        "ªŃãģ¿ãģ¾ãģĻ"
      ],
      [
        "Ġmal",
        "ade"
      ],
      [
        "éĸ",
        "ĵ"
      ],
      [
        "ãĥª",
        "ãĥ©ãĥĥãĤ¯"
      ],
      [
        "Ġbore",
        "d"
      ],
      [
        "Ġwar",
        "m"
      ],
      [
        "Ġpod",
        "cast"
      ],
      [
        "ĠæĻĤ",
        "éĸĵ"
      ],
      [
        "ãĥªãĥ©ãĥĥãĤ¯",
        "ãĤ¹ãģĹãģ¾ãģĻ"
      ],
      [
        "ac",
        "hÃ¨te"
      ],
      [
        "é",
        "Ģ"
      ],
      [
        "Ġple",
        "ut"
      ],
      [
        "éĢ",
        "Łãģı"
      ],
      [
        "a",
        "p"
      ],
      [
        "l",
        "o"
      ],
      [
        "s",
        "s"
      ],
      [
        "t",
        "r"
      ],
      [
        "t",
        "s"
      ],
      [
        "©",
        "c"
      ],
      [
        "ķ",
        "i"
      ],
      [
        "Ġf",
        "u"
      ],
      [
        "áº¥",
        "u"
      ],
      [
        "Ġv",
        "is"
      ],
      [
        "ĠÄĳ",
        "Ã¬nh"
      ],
      [
        "Ġst",
        "ress"
      ],
      [
        "áº¡",
        "ng"
      ],
      [
        "Ġwat",
        "er"
      ],
      [
        "Ġbuy",
        "s"
      ],
      [
        "²·",
        "ãģĨ"
      ],
      [
        "Ġgi",
        "a"
      ],
      [
        "Ġnot",
        "hing"
      ],
      [
        "æĺ",
        "¼"
      ],
      [
        "ä¸Ģ",
        "ç"
      ],
      [
        "oi",
        "d"
      ],
      [
        "ĠnÆ°á»Ľ",
        "c"
      ],
      [
        "ä»ķäºĭ",
        "ãģĹãģ¾ãģĻ"
      ],
      [
        "Ġs",
        "low"
      ],
      [
        "Ġappre",
        "nd"
      ],
      [
        "Ġslow",
        "ly"
      ],
      [
        "e",
        "un"
      ],
      [
        "j",
        "eun"
      ],
      [
        "å",
        "¯Ŀ"
      ],
      [
        "Ġ",
        "ä¼ĳ"
      ],
      [
        "ãģ",
        "Ī"
      ],
      [
        "Ġto",
        "get"
      ],
      [
        "ãģ«",
        "æ"
      ],
      [
        "Ġeat",
        "ing"
      ],
      [
        "Ġç",
        "Ĺħ"
      ],
      [
        "ĠdÃ©",
        "jeun"
      ],
      [
        "ºĹ",
        "ãģ§"
      ],
      [
        "Ġtoget",
        "her"
      ],
      [
        "ĠdÃ©jeun",
        "er"
      ],
      [
        "a",
        "ur"
      ],
      [
        "b",
        "e"
      ],
      [
        "v",
        "re"
      ],
      [
        "±",
        "º"
      ],
      [
        "¹",
        "p"
      ],
      [
        "è",
        "ħ¹"
      ],
      [
        "Ġt",
        "á»ĳt"
      ],
      [
        "áº",
        "¹p"
      ],
      [
        "Ġma",
        "ke"
      ],
      [
        "Ġr",
        "áº£"
      ],
      [
        "Ġrest",
        "aur"
      ],
      [
        "Ġsp",
        "ort"
      ],
      [
        "ãĤģ",
        "ãģŁ"
      ],
      [
        "Ġwant",
        "s"
      ],
      [
        "ãģĵãģ¨",
        "ãģ«æ"
      ],
      [
        "±º",
        "ãĤģãģŁ"
      ],
      [
        "Ġráº£",
        "nh"
      ],
      [
        "Ġrestaur",
        "ant"
      ],
      [
        "ãģĵãģ¨ãģ«æ",
        "±ºãĤģãģŁ"
      ],
      [
        "¸",
        "°"
      ],
      [
        "Ĥ",
        "ªãģĳãĤĮãģ°"
      ],
      [
        "áºŃ",
        "m"
      ],
      [
        "Ġch",
        "áºŃm"
      ],
      [
        "ãģĮæ",
        "ĤªãģĳãĤĮãģ°"
      ],
      [
        "ie",
        "d"
      ],
      [
        "Ġeat",
        "s"
      ],
      [
        "Ġwe",
        "ll"
      ],
      [
        "a",
        "b"
      ],
      [
        "f",
        "u"
      ],
      [
        "f",
        "Ã©"
      ],
      [
        "l",
        "Ã©"
      ],
      [
        "n",
        "y"
      ],
      [
        "he",
        "d"
      ],
      [
        "Ġc",
        "la"
      ],
      [
        "Ġn",
        "ice"
      ],
      [
        "Ãł",
        "o"
      ],
      [
        "Ġho",
        "li"
      ],
      [
        "Ġo",
        "f"
      ],
      [
        "Ġr",
        "Ã©"
      ],
      [
        "Ġfa",
        "st"
      ],
      [
        "Ġco",
        "me"
      ],
      [
        "é£Ł",
        "ãĤĴé£Łãģ¹ãģ¾ãģĻ"
      ],
      [
        "ãģĳ",
        "ãģ¾ãģĻ"
      ],
      [
        "Ġin",
        "v"
      ],
      [
        "Ġti",
        "áº¿t"
      ],
      [
        "Ġth",
        "Æ°"
      ],
      [
        "Ġgi",
        "Ã£"
      ],
      [
        "ãģ¦",
        "ãģĦãĤĮãģ°"
      ],
      [
        "¤ĸåĩº",
        "ãģĹãģ¾ãģĻ"
      ],
      [
        "Ġsun",
        "ny"
      ],
      [
        "Ġgr",
        "ab"
      ],
      [
        "Ġca",
        "fÃ©"
      ],
      [
        "Ġrun",
        "ning"
      ],
      [
        "Ġsnack",
        "s"
      ],
      [
        "fu",
        "l"
      ],
      [
        "Ġholi",
        "day"
      ],
      [
        "ĠgiÃ£",
        "n"
      ],
      [
        "Ġh",
        "á»į"
      ],
      [
        "Ġ",
        "."
      ],
      [
        "Ġv",
        "ite"
      ],
      [
        "Ġoccup",
        "Ã©"
      ],
      [
        "n",
        "ic"
      ],
      [
        "t",
        "her"
      ],
      [
        "u",
        "áº§n"
      ],
      [
        "å",
        "Ī"
      ],
      [
        "é",
        "ĩĳ"
      ],
      [
        "Ĩ",
        "ãĥ¬"
      ],
      [
        "Ĭ",
        "ãģĹãģ¾ãģĻ"
      ],
      [
        "Ġt",
        "Ã©"
      ],
      [
        "Ġt",
        "uáº§n"
      ],
      [
        "Ġm",
        "Ã©"
      ],
      [
        "Ġd",
        "one"
      ],
      [
        "Ġn",
        "áº¯ng"
      ],
      [
        "Ġp",
        "ic"
      ],
      [
        "Ġv",
        "ui"
      ],
      [
        "ĠÄĳ",
        "áº·t"
      ],
      [
        "ãĥ",
        "ĵ"
      ],
      [
        "ãģĹ",
        "ãģŁãĤī"
      ],
      [
        "Ġtr",
        "Æ°a"
      ],
      [
        "Ġo",
        "ther"
      ],
      [
        "se",
        "t"
      ],
      [
        "Æ°",
        "á»"
      ],
      [
        "Ġå",
        "ıĭéģĶ"
      ],
      [
        "ãģĮ",
        "çµĤãĤı"
      ],
      [
        "an",
        "ce"
      ],
      [
        "ro",
        "ke"
      ],
      [
        "ãģ®",
        "æĹ¥ãģ¯"
      ],
      [
        "Ġche",
        "ck"
      ],
      [
        "ĠæĹ",
        "©"
      ],
      [
        "Ġplan",
        "s"
      ],
      [
        "Ġå®¶",
        "æĹı"
      ],
      [
        "Ĩãĥ¬",
        "ãĥĵ"
      ],
      [
        "ĠtÃ©",
        "lÃ©"
      ],
      [
        "ĠmÃ©",
        "d"
      ],
      [
        "Ġpic",
        "nic"
      ],
      [
        "Ĩ",
        "ãģ£"
      ],
      [
        "ãģı",
        "ãĤĬ"
      ],
      [
        "Ġå¿Ļ",
        "ãģĹãģĳãĤĮãģ°"
      ],
      [
        "Ĩãģ£",
        "ãģıãĤĬ"
      ],
      [
        "r",
        "it"
      ],
      [
        "å",
        "Ń¦ãģ¶"
      ],
      [
        "Ġl",
        "o"
      ],
      [
        "a",
        "ch"
      ],
      [
        "i",
        "m"
      ],
      [
        "o",
        "cu"
      ],
      [
        "¢",
        "¨"
      ],
      [
        "·",
        "Ĵ"
      ],
      [
        "æ",
        "ļ"
      ],
      [
        "é",
        "Ł³æ¥½ãĤĴèģ´"
      ],
      [
        "Ġt",
        "reat"
      ],
      [
        "Ġs",
        "ou"
      ],
      [
        "Ġc",
        "Ã"
      ],
      [
        "Ġc",
        "ook"
      ],
      [
        "Ġc",
        "hÃ¡"
      ],
      [
        "Ġf",
        "ocu"
      ],
      [
        "Ġh",
        "ou"
      ],
      [
        "Ġv",
        "á»Ľ"
      ],
      [
        "ie",
        "n"
      ],
      [
        "ĠA",
        "t"
      ],
      [
        "ãģ£",
        "ãģ¦"
      ],
      [
        "ĠL",
        "e"
      ],
      [
        "ĠOn",
        "ce"
      ],
      [
        "Ġx",
        "ong"
      ],
      [
        "Ġbe",
        "au"
      ],
      [
        "ĠéĢ",
        "Ģ"
      ],
      [
        "Ġcle",
        "an"
      ],
      [
        "Ġdecide",
        "s"
      ],
      [
        "Ã©cout",
        "e"
      ],
      [
        "ãĤ¹ãĥ",
        "Ī"
      ],
      [
        "ä¸Ģç",
        "·Ĵ"
      ],
      [
        "éŁ³æ¥½ãĤĴèģ´",
        "ãģįãģ¾ãģĻ"
      ],
      [
        "ĠchÃ¡",
        "n"
      ],
      [
        "Ġfocu",
        "s"
      ],
      [
        "Ġhou",
        "se"
      ],
      [
        "Ġvá»Ľ",
        "i"
      ],
      [
        "g",
        "h"
      ],
      [
        "ãģ",
        "¤"
      ],
      [
        "Ġmo",
        "i"
      ],
      [
        "Ġche",
        "z"
      ],
      [
        "a",
        "ble"
      ],
      [
        "f",
        "ort"
      ],
      [
        "l",
        "la"
      ],
      [
        "m",
        "bre"
      ],
      [
        "©",
        "º"
      ],
      [
        "¼",
        "ãģ¿ãģ¾ãģĻ"
      ],
      [
        "å",
        "ī"
      ],
      [
        "é",
        "ł"
      ],
      [
        "į",
        "ãĤĴ"
      ],
      [
        "he",
        "ad"
      ],
      [
        "Ġs",
        "w"
      ],
      [
        "Ġs",
        "ave"
      ],
      [
        "Ġa",
        "head"
      ],
      [
        "Ġc",
        "ou"
      ],
      [
        "Ã´",
        "t"
      ],
      [
        "Ġb",
        "reat"
      ],
      [
        "Ġw",
        "on"
      ],
      [
        "Ġh",
        "ur"
      ],
      [
        "Ġp",
        "hone"
      ],
      [
        "me",
        "d"
      ],
      [
        "Ġv",
        "i"
      ],
      [
        "ãĥ",
        "³"
      ],
      [
        "Ġde",
        "ep"
      ],
      [
        "Ġde",
        "li"
      ],
      [
        "å½¼å¥³ãģ¯",
        "å®¶ãģ«ãģĦãģ¾ãģĻ"
      ],
      [
        "å½¼ãģ¯",
        "å®¶ãģ«ãģĦãģ¾ãģĻ"
      ],
      [
        "Ġtr",
        "Ãł"
      ],
      [
        "Ġu",
        "mbre"
      ],
      [
        "Ġeat",
        "en"
      ],
      [
        "au",
        "d"
      ],
      [
        "Ġfr",
        "om"
      ],
      [
        "Ġch",
        "aud"
      ],
      [
        "as",
        "se"
      ],
      [
        "æľ",
        "Ŀ"
      ],
      [
        "Ġsome",
        "one"
      ],
      [
        "Ġcom",
        "fort"
      ],
      [
        "ãģ¦ãģĦãĤĭ",
        "æĻĤ"
      ],
      [
        "Ġli",
        "vre"
      ],
      [
        "ĠçĹħ",
        "æ°ĹãģªãĤī"
      ],
      [
        "åī",
        "įãĤĴ"
      ],
      [
        "éł",
        "¼ãģ¿ãģ¾ãģĻ"
      ],
      [
        "Ġbreat",
        "he"
      ],
      [
        "Ġhur",
        "ry"
      ],
      [
        "Ġdeep",
        "ly"
      ],
      [
        "Ġdeli",
        "very"
      ],
      [
        "Ġumbre",
        "lla"
      ],
      [
        "åīįãĤĴ",
        "éł¼ãģ¿ãģ¾ãģĻ"
      ],
      [
        "å",
        "¸°"
      ],
      [
        "ĠprÃ©v",
        "o"
      ],
      [
        "å",
        "¤"
      ],
      [
        "ãĤ",
        "Ĩãģ£ãģıãĤĬ"
      ],
      [
        "V",
        "Ãło"
      ],
      [
        "u",
        "s"
      ],
      [
        "u",
        "á»ĳ"
      ],
      [
        "±",
        "æľ"
      ],
      [
        "Ġ",
        "VÃło"
      ],
      [
        "Ł",
        "ãĤī"
      ],
      [
        "Ġs",
        "ing"
      ],
      [
        "Ġa",
        "ff"
      ],
      [
        "Ġc",
        "as"
      ],
      [
        "Ġd",
        "ance"
      ],
      [
        "Ġl",
        "Ãºc"
      ],
      [
        "Ġj",
        "our"
      ],
      [
        "Ġp",
        "ress"
      ],
      [
        "ãĥ",
        "Ĩãĥ¬ãĥĵ"
      ],
      [
        "ãģª",
        "ãģĮ"
      ],
      [
        "ãĤĮãģ",
        "ŁãĤī"
      ],
      [
        "Ġæ",
        "Ĥ"
      ],
      [
        "Ġme",
        "ts"
      ],
      [
        "Ġä",
        "º"
      ],
      [
        "ãģĮãģ",
        "Ħ"
      ],
      [
        "Ġth",
        "uá»ĳ"
      ],
      [
        "ä¸",
        "Ń"
      ],
      [
        "ĠéĽ¨",
        "ãģªãĤī"
      ],
      [
        "Ġfilm",
        "s"
      ],
      [
        "Ġfu",
        "ll"
      ],
      [
        "Ġvis",
        "it"
      ],
      [
        "ãĥĨãĥ¬ãĥĵ",
        "ãĤĴè¦ĭãģ¾ãģĻ"
      ],
      [
        "ãģªãģĮ",
        "ãĤī"
      ],
      [
        "Ġthuá»ĳ",
        "c"
      ],
      [
        "Ġæ",
        "ľ"
      ],
      [
        "T",
        "u"
      ],
      [
        "a",
        "nd"
      ],
      [
        "m",
        "ing"
      ],
      [
        "m",
        "and"
      ],
      [
        "u",
        "d"
      ],
      [
        "u",
        "it"
      ],
      [
        "å",
        "Ŀ"
      ],
      [
        "ķ",
        "ãĤ"
      ],
      [
        "Ġt",
        "Ã¢"
      ],
      [
        "Ġm",
        "on"
      ],
      [
        "Ġc",
        "an"
      ],
      [
        "Ġd",
        "áºŃ"
      ],
      [
        "Ġl",
        "oo"
      ],
      [
        "at",
        "ur"
      ],
      [
        "Ġn",
        "uit"
      ],
      [
        "er",
        "t"
      ],
      [
        "ĠÄĳ",
        "áº¿"
      ],
      [
        "ai",
        "la"
      ],
      [
        "ĠS",
        "atur"
      ],
      [
        "Ã©",
        "e"
      ],
      [
        "Ġtr",
        "áº¡ng"
      ],
      [
        "ar",
        "ge"
      ],
      [
        "ie",
        "t"
      ],
      [
        "ãģ«",
        "ãģĦãĤĭ"
      ],
      [
        "Ġæ",
        "°Ĺ"
      ],
      [
        "ow",
        "s"
      ],
      [
        "Ġk",
        "hi"
      ],
      [
        "Ġé",
        "¢¨"
      ],
      [
        "Ġbá»",
        "ı"
      ],
      [
        "Ġrain",
        "y"
      ],
      [
        "Ġqu",
        "Ã¡"
      ],
      [
        "Ġqu",
        "iet"
      ],
      [
        "ve",
        "c"
      ],
      [
        "Ġwee",
        "k"
      ],
      [
        "ĠP",
        "ar"
      ],
      [
        "ĠãģĬ",
        "éĩĳ"
      ],
      [
        "æ¥",
        "Ń"
      ],
      [
        "Ġcom",
        "mand"
      ],
      [
        "Ġå¤",
        "ľ"
      ],
      [
        "Ġwind",
        "y"
      ],
      [
        "Ġav",
        "aila"
      ],
      [
        "Ġlá»",
        "ħ"
      ],
      [
        "åĪ",
        "Ĩ"
      ],
      [
        "Ġæľ",
        "Ŀ"
      ],
      [
        "Tu",
        "be"
      ],
      [
        "ĠtÃ¢",
        "m"
      ],
      [
        "ĠdáºŃ",
        "y"
      ],
      [
        "Ġloo",
        "se"
      ],
      [
        "ĠÄĳáº¿",
        "n"
      ],
      [
        "ĠSatur",
        "day"
      ],
      [
        "arge",
        "nt"
      ],
      [
        "Ġæ°Ĺ",
        "åĪĨ"
      ],
      [
        "Ġcommand",
        "e"
      ],
      [
        "Ġavaila",
        "ble"
      ],
      [
        "è",
        "ĸ"
      ],
      [
        "ãģĮ",
        "éĻ"
      ],
      [
        "ãģ«è¡Įãģ",
        "ı"
      ],
      [
        "ĠéĽ¨",
        "ãģĮéĻ"
      ],
      [
        "çĹħéĻ¢",
        "ãģ§"
      ],
      [
        "ãģł",
        "ãģ£ãģŁãĤī"
      ],
      [
        "ĠéĽ¨ãģĮéĻ",
        "į"
      ],
      [
        "d",
        "get"
      ],
      [
        "r",
        "st"
      ],
      [
        "©",
        "æ°Ĺ"
      ],
      [
        "±",
        "Ī"
      ],
      [
        "å",
        "±Ī"
      ],
      [
        "è",
        "µ"
      ],
      [
        "Ĭ",
        "ľ"
      ],
      [
        "Ļ",
        "´"
      ],
      [
        "Ľ",
        "ãĤĵ"
      ],
      [
        "ãģ",
        "°"
      ],
      [
        "Ġt",
        "en"
      ],
      [
        "Ġt",
        "Ã´t"
      ],
      [
        "áº",
        "»"
      ],
      [
        "Ġd",
        "ow"
      ],
      [
        "Ġf",
        "at"
      ],
      [
        "Ġg",
        "Ã¬"
      ],
      [
        "ãģ¾ãģ",
        "ĽãĤĵ"
      ],
      [
        "Ġj",
        "ou"
      ],
      [
        "Ġp",
        "et"
      ],
      [
        "ĠÄĳ",
        "áº¹p"
      ],
      [
        "ãģĦ",
        "ãģªãĤī"
      ],
      [
        "ãģĹ",
        "ãģ¾ãģĽãĤĵ"
      ],
      [
        "nt",
        "s"
      ],
      [
        "ic",
        "ame"
      ],
      [
        "Ġæ",
        "Ļ´"
      ],
      [
        "Ġbu",
        "dget"
      ],
      [
        "é£Ł",
        "ãĤĴæ"
      ],
      [
        "Ġfr",
        "oid"
      ],
      [
        "en",
        "s"
      ],
      [
        "Ġsh",
        "ow"
      ],
      [
        "Ġgi",
        "Ã³"
      ],
      [
        "Ġtravaille",
        "r"
      ],
      [
        "ig",
        "u"
      ],
      [
        "ion",
        "s"
      ],
      [
        "Ġfai",
        "m"
      ],
      [
        "ĠãģĬ",
        "èħ¹"
      ],
      [
        "Ġå¤",
        "©æ°Ĺ"
      ],
      [
        "ĠnÆ°á»Ľ",
        "ng"
      ],
      [
        "¤ĸåĩº",
        "ãģĹãģ¾ãģĽãĤĵ"
      ],
      [
        "Ġcle",
        "ar"
      ],
      [
        "Ġthi",
        "rst"
      ],
      [
        "Ġcu",
        "á»ĳi"
      ],
      [
        "ĠmÃ©d",
        "icame"
      ],
      [
        "ĠéĢĢ",
        "å±Ī"
      ],
      [
        "å¤",
        "©"
      ],
      [
        "Ĭľ",
        "ãģįãģ¾ãģĻ"
      ],
      [
        "Ġdow",
        "n"
      ],
      [
        "Ġfat",
        "igu"
      ],
      [
        "Ġjou",
        "e"
      ],
      [
        "Ġpet",
        "it"
      ],
      [
        "é£ŁãĤĴæ",
        "Ĭľãģįãģ¾ãģĻ"
      ],
      [
        "Ġthirst",
        "y"
      ],
      [
        "ĠmÃ©dicame",
        "nts"
      ],
      [
        "Ġä¸",
        "Ģ"
      ],
      [
        "å",
        "Ĳ"
      ],
      [
        "a",
        "ke"
      ],
      [
        "a",
        "pp"
      ],
      [
        "l",
        "s"
      ],
      [
        "m",
        "p"
      ],
      [
        "t",
        "i"
      ],
      [
        "v",
        "en"
      ],
      [
        "w",
        "n"
      ],
      [
        "°",
        "´"
      ],
      [
        "ä",
        "¹"
      ],
      [
        "å",
        "¼"
      ],
      [
        "æ",
        "ĸ"
      ],
      [
        "ĭ",
        "ch"
      ],
      [
        "ãģ",
        "İ"
      ],
      [
        "á»",
        "©c"
      ],
      [
        "Ġm",
        "ood"
      ],
      [
        "Ġa",
        "re"
      ],
      [
        "re",
        "d"
      ],
      [
        "Ġd",
        "ar"
      ],
      [
        "ĠthÃ",
        "©"
      ],
      [
        "Ġw",
        "ake"
      ],
      [
        "Ġn",
        "áº¥u"
      ],
      [
        "Ġe",
        "ven"
      ],
      [
        "nd",
        "er"
      ],
      [
        "hi",
        "nd"
      ],
      [
        "Ġst",
        "ressed"
      ],
      [
        "ãĤĴ",
        "ãģ¤"
      ],
      [
        "Ġu",
        "nder"
      ],
      [
        "Ġr",
        "us"
      ],
      [
        "ãģ¿",
        "çī©"
      ],
      [
        "Ġti",
        "red"
      ],
      [
        "é£²",
        "ãģ¿çī©"
      ],
      [
        "eu",
        "x"
      ],
      [
        "Ġbe",
        "hind"
      ],
      [
        "ĠbáºŃ",
        "t"
      ],
      [
        "Ġlá»",
        "ĭch"
      ],
      [
        "ĠæĹ",
        "¥"
      ],
      [
        "Ġcome",
        "s"
      ],
      [
        "ä¸Ń",
        "ãģªãĤī"
      ],
      [
        "app",
        "y"
      ],
      [
        "Ġdar",
        "k"
      ],
      [
        "Ġeven",
        "ing"
      ],
      [
        "ãĤĴãģ¤",
        "ãģĳãģ¾ãģĻ"
      ],
      [
        "Ġrus",
        "hed"
      ],
      [
        "á»",
        "ģ"
      ],
      [
        "Ġv",
        "á»ģ"
      ],
      [
        "ĠprÃ©vo",
        "it"
      ],
      [
        "Ġ",
        "ãģ"
      ],
      [
        "ĠA",
        "u"
      ],
      [
        "å®¶ãģ«",
        "å¸°"
      ],
      [
        "ãĤĵ",
        "ãģł"
      ],
      [
        "£",
        "c"
      ],
      [
        "ħ",
        "è¡Įãģ"
      ],
      [
        "Ĺ",
        "ãģ¾ãģĻ"
      ],
      [
        "Ġc",
        "hi"
      ],
      [
        "Ġd",
        "is"
      ],
      [
        "Ġl",
        "ow"
      ],
      [
        "Ġb",
        "roke"
      ],
      [
        "Ġe",
        "nds"
      ],
      [
        "ĠÄĳ",
        "Æ°á»"
      ],
      [
        "ãģĦ",
        "æĹ¥ãģ¯"
      ],
      [
        "å½¼å¥³ãģ¯",
        "æ"
      ],
      [
        "å½¼ãģ¯",
        "æ"
      ],
      [
        "å½¼ãģ¯",
        "å®¶ãģ§"
      ],
      [
        "æĹ",
        "ħè¡Įãģ"
      ],
      [
        "ãģĮ",
        "ç"
      ],
      [
        "ãģĮ",
        "è"
      ],
      [
        "Ġsh",
        "ort"
      ],
      [
        "Ġgi",
        "an"
      ],
      [
        "Ġup",
        "set"
      ],
      [
        "ãģ®",
        "æĻĤãģ¯"
      ],
      [
        "Ġæļ",
        "ĩ"
      ],
      [
        "Ġgr",
        "asse"
      ],
      [
        "Ġpo",
        "or"
      ],
      [
        "Ġmatin",
        "Ã©e"
      ],
      [
        "Ġaff",
        "ord"
      ],
      [
        "Ġcas",
        "h"
      ],
      [
        "Ġjour",
        "n"
      ],
      [
        "ĠÄĳÆ°á»",
        "£c"
      ],
      [
        "æĹħè¡Įãģ",
        "Ĺãģ¾ãģĻ"
      ],
      [
        "Ġa",
        "che"
      ],
      [
        "ou",
        "gh"
      ],
      [
        "å½¼å¥³ãģ¯",
        "å®¶ãģ§"
      ],
      [
        "å",
        "ºĹãģ§"
      ],
      [
        "Ġ",
        "é£Łãģ¹"
      ],
      [
        "Ġs",
        "e"
      ],
      [
        "Ġj",
        "u"
      ],
      [
        "å½¼å¥³ãģ¯",
        "æķ£æŃ©ãģĹãģ¾ãģĻ"
      ],
      [
        "å½¼ãģ¯",
        "æķ£æŃ©ãģĹãģ¾ãģĻ"
      ],
      [
        "ãģĭ",
        "ãģ£ãģŁãĤī"
      ],
      [
        "a",
        "is"
      ],
      [
        "c",
        "es"
      ],
      [
        "d",
        "o"
      ],
      [
        "d",
        "rate"
      ],
      [
        "u",
        "y"
      ],
      [
        "y",
        "drate"
      ],
      [
        "£",
        "ķ"
      ],
      [
        "©",
        "±"
      ],
      [
        "ª",
        "ãĤī"
      ],
      [
        "·",
        "ãģį"
      ],
      [
        "¾",
        "¼"
      ],
      [
        "å",
        "Ń¦æł¡ãģ§"
      ],
      [
        "è",
        "£ķ"
      ],
      [
        "è",
        "©±"
      ],
      [
        "è",
        "¾¼"
      ],
      [
        "ģ",
        "ħ"
      ],
      [
        "ĸ",
        "²"
      ],
      [
        "Ļ",
        "è£ķ"
      ],
      [
        "á»",
        "ħ"
      ],
      [
        "Ġm",
        "á»ĩ"
      ],
      [
        "Ġa",
        "vec"
      ],
      [
        "Ġh",
        "áº¿t"
      ],
      [
        "Ġh",
        "ydrate"
      ],
      [
        "le",
        "il"
      ],
      [
        "Ġto",
        "o"
      ],
      [
        "Ġp",
        "ay"
      ],
      [
        "ĠÄĳ",
        "Ãª"
      ],
      [
        "ãĥ",
        "Ķ"
      ],
      [
        "Ġtr",
        "á»ħ"
      ],
      [
        "ĠcÃ´",
        "ng"
      ],
      [
        "Ġæ",
        "Ģ"
      ],
      [
        "áº¡",
        "i"
      ],
      [
        "é£Ł",
        "å¾Į"
      ],
      [
        "ãģ¿",
        "ãģ®æĹ¥ãģ¯"
      ],
      [
        "Ġout",
        "do"
      ],
      [
        "áºŃ",
        "n"
      ],
      [
        "Ġta",
        "n"
      ],
      [
        "Ġk",
        "hÃ¡"
      ],
      [
        "Ġé",
        "ģħ"
      ],
      [
        "Ġso",
        "leil"
      ],
      [
        "Ġch",
        "uy"
      ],
      [
        "an",
        "ces"
      ],
      [
        "te",
        "nds"
      ],
      [
        "Ġç",
        "ĸ²"
      ],
      [
        "Ġgi",
        "áºŃn"
      ],
      [
        "Ġnh",
        "au"
      ],
      [
        "Ġpl",
        "uie"
      ],
      [
        "Ġtemp",
        "er"
      ],
      [
        "Ġfai",
        "re"
      ],
      [
        "ĩº",
        "åīįãĤĴéł¼ãģ¿ãģ¾ãģĻ"
      ],
      [
        "Ġen",
        "ough"
      ],
      [
        "ĠnÃ³",
        "i"
      ],
      [
        "ĠdÃ©",
        "tends"
      ],
      [
        "ãģ®",
        "å¾Į"
      ],
      [
        "oi",
        "r"
      ],
      [
        "Ġbe",
        "ach"
      ],
      [
        "Ġvac",
        "ances"
      ],
      [
        "¯Ŀ",
        "åĿ"
      ],
      [
        "Ġbuá»",
        "ķi"
      ],
      [
        "Ġpar",
        "k"
      ],
      [
        "Ġä½",
        "Ļè£ķ"
      ],
      [
        "á»ĩ",
        "n"
      ],
      [
        "Ġcla",
        "ss"
      ],
      [
        "ĠåıĭéģĶ",
        "ãģ¨"
      ],
      [
        "ãģĮçµĤãĤı",
        "ãģ£ãģŁãĤī"
      ],
      [
        "Ġå®¶æĹı",
        "ãģ¨"
      ],
      [
        "ĠæĤ",
        "²"
      ],
      [
        "å®¶ãģ«å¸°",
        "ãĤĬãģ¾ãģĻ"
      ],
      [
        "ãĤĵãģł",
        "ãĤī"
      ],
      [
        "è©±",
        "ãģĹãģ¾ãģĻ"
      ],
      [
        "Ġmá»ĩ",
        "t"
      ],
      [
        "ĠÄĳÃª",
        "m"
      ],
      [
        "Ġoutdo",
        "ors"
      ],
      [
        "ĠkhÃ¡",
        "t"
      ],
      [
        "Ġchuy",
        "á»ĩn"
      ],
      [
        "Ġveu",
        "t"
      ],
      [
        "Ġache",
        "ter"
      ],
      [
        "i",
        "z"
      ],
      [
        "ĠÄĳ",
        "ang"
      ],
      [
        "lle",
        "r"
      ],
      [
        "Ġlearn",
        "s"
      ],
      [
        "'",
        "ve"
      ],
      [
        "a",
        "ge"
      ],
      [
        "c",
        "t"
      ],
      [
        "g",
        "iz"
      ],
      [
        "i",
        "ate"
      ],
      [
        "l",
        "ore"
      ],
      [
        "l",
        "ine"
      ],
      [
        "m",
        "med"
      ],
      [
        "o",
        "lo"
      ],
      [
        "p",
        "one"
      ],
      [
        "p",
        "lore"
      ],
      [
        "p",
        "olo"
      ],
      [
        "£",
        "ãĤ¹"
      ],
      [
        "¥",
        "Ŀ"
      ],
      [
        "ª",
        "ãĥ"
      ],
      [
        "¹",
        "ng"
      ],
      [
        "Ã",
        "®"
      ],
      [
        "Ä",
        "ĥ"
      ],
      [
        "å",
        "ıĭéģĶãģ«ä¼ļãģĦãģ¾ãģĻ"
      ],
      [
        "æ",
        "Ĩ"
      ],
      [
        "Ġ",
        "Ã¡"
      ],
      [
        "Ġ",
        "å½¼å¥³ãģ¯å"
      ],
      [
        "Ĩ",
        "·"
      ],
      [
        "Ġs",
        "au"
      ],
      [
        "Ġs",
        "ens"
      ],
      [
        "á»",
        "ķi"
      ],
      [
        "ãĤ",
        "·"
      ],
      [
        "Ġm",
        "á»"
      ],
      [
        "Ġm",
        "ore"
      ],
      [
        "Ġa",
        "polo"
      ],
      [
        "Ġc",
        "rea"
      ],
      [
        "Ġd",
        "Ã®"
      ],
      [
        "is",
        "ine"
      ],
      [
        "Ġb",
        "ed"
      ],
      [
        "Ġb",
        "ien"
      ],
      [
        "Ġn",
        "er"
      ],
      [
        "Ġn",
        "ap"
      ],
      [
        "Ġi",
        "ce"
      ],
      [
        "Ġi",
        "mmed"
      ],
      [
        "Ġj",
        "ac"
      ],
      [
        "Ġj",
        "oy"
      ],
      [
        "Ġv",
        "oy"
      ],
      [
        "st",
        "pone"
      ],
      [
        "ãģĹ",
        "ãģ¦ãģĦãĤĮãģ°"
      ],
      [
        "it",
        "ation"
      ],
      [
        "ãģ«",
        "é£Łãģ¹ãģ¾ãģĻ"
      ],
      [
        "ĠA",
        "C"
      ],
      [
        "ke",
        "t"
      ],
      [
        "Ġrest",
        "er"
      ],
      [
        "Ġme",
        "al"
      ],
      [
        "Ġsh",
        "ade"
      ],
      [
        "Ġwe",
        "nt"
      ],
      [
        "Ġwe",
        "ar"
      ],
      [
        "Ġex",
        "plore"
      ],
      [
        "ä¼ĳ",
        "æĨ"
      ],
      [
        "å½¼å¥³ãģ¯å",
        "ıĭéģĶãģ«ä¼ļãģĦãģ¾ãģĻ"
      ],
      [
        "å½¼ãģ¯å",
        "ıĭéģĶãģ«ä¼ļãģĦãģ¾ãģĻ"
      ],
      [
        "Ġdo",
        "or"
      ],
      [
        "Ġdo",
        "ct"
      ],
      [
        "Ġdec",
        "line"
      ],
      [
        "ä¼ļç¤¾ãģ",
        "«"
      ],
      [
        "low",
        "s"
      ],
      [
        "Ġpo",
        "stpone"
      ],
      [
        "Ġli",
        "bre"
      ],
      [
        "Ġheat",
        "er"
      ],
      [
        "Ġcu",
        "isine"
      ],
      [
        "Ġinv",
        "itation"
      ],
      [
        "Ġlo",
        "ck"
      ],
      [
        "im",
        "ming"
      ],
      [
        "Ġsou",
        "p"
      ],
      [
        "ĠcÃ",
        "¹ng"
      ],
      [
        "ä¸Ģç·Ĵ",
        "ãģ«é£Łãģ¹ãģ¾ãģĻ"
      ],
      [
        "Ġsw",
        "imming"
      ],
      [
        "ķãĤ",
        "£ãĤ¹"
      ],
      [
        "°´",
        "ãĤĴé£²ãģ¿ãģ¾ãģĻ"
      ],
      [
        "giz",
        "e"
      ],
      [
        "iate",
        "ly"
      ],
      [
        "ªãĥ",
        "ķãĤ£ãĤ¹"
      ],
      [
        "Ġsau",
        "te"
      ],
      [
        "Ġapolo",
        "gize"
      ],
      [
        "Ġcrea",
        "m"
      ],
      [
        "Ġner",
        "v"
      ],
      [
        "Ġimmed",
        "iately"
      ],
      [
        "Ġjac",
        "ket"
      ],
      [
        "Ġvoy",
        "age"
      ],
      [
        "ä¼ĳæĨ",
        "©ãģĹãģ¾ãģĻ"
      ],
      [
        "Ġdoct",
        "or"
      ],
      [
        "Ġinvitation",
        "s"
      ],
      [
        "m",
        "ble"
      ],
      [
        "ķ",
        "ãģĭ"
      ],
      [
        "Ġa",
        "ller"
      ],
      [
        "Ġst",
        "ud"
      ],
      [
        "se",
        "mble"
      ],
      [
        "ãĤĴè",
        "²·ãģĨ"
      ],
      [
        "Ġen",
        "semble"
      ],
      [
        "Ġ",
        "å½¼ãģ¯å"
      ],
      [
        "Ļ",
        "ãĤĭ"
      ],
      [
        "Ġn",
        "our"
      ],
      [
        "å½¼å¥³ãģ¯",
        "ãĤ³ãĥ¼ãĥĴãĥ¼ãĤĴé£²ãģ¿ãģ¾ãģĻ"
      ],
      [
        "å½¼ãģ¯",
        "ãĤ³ãĥ¼ãĥĴãĥ¼ãĤĴé£²ãģ¿ãģ¾ãģĻ"
      ],
      [
        "Ġå",
        "Ń¦æł¡"
      ],
      [
        "Ġapprend",
        "re"
      ],
      [
        "å¯Ŀ",
        "ãģ¾ãģĻ"
      ],
      [
        "rit",
        "ure"
      ],
      [
        "Ġstud",
        "y"
      ],
      [
        "Ġnour",
        "riture"
      ],
      [
        "d",
        "Ã©"
      ],
      [
        "e",
        "au"
      ],
      [
        "i",
        "nt"
      ],
      [
        "p",
        "are"
      ],
      [
        "r",
        "ie"
      ],
      [
        "±",
        "c"
      ],
      [
        "¶",
        "ãĤĴé£²ãģ¿ãģ¾ãģĻ"
      ],
      [
        "½",
        "ãģ"
      ],
      [
        "æ",
        "Ľ"
      ],
      [
        "è",
        "Į"
      ],
      [
        "Ġ",
        "Ã´"
      ],
      [
        "ģ",
        "ãģ£ãģ¦"
      ],
      [
        "Ĥ",
        "ĺ"
      ],
      [
        "Į",
        "ģãģ£ãģ¦"
      ],
      [
        "Ĳ",
        "½ãģ"
      ],
      [
        "ľ",
        "æĹ¥ãģªãĤī"
      ],
      [
        "Ġc",
        "ry"
      ],
      [
        "Ġp",
        "au"
      ],
      [
        "Ġre",
        "nt"
      ],
      [
        "Ġje",
        "ux"
      ],
      [
        "ãģĦ",
        "ãģįãģ¾ãģĻ"
      ],
      [
        "ãģĦ",
        "ãģŁãģĦ"
      ],
      [
        "ãģĦ",
        "ãģ¦ãģĦãĤĮãģ°"
      ],
      [
        "Ġgo",
        "ing"
      ],
      [
        "Ã©",
        "rie"
      ],
      [
        "å½¼å¥³ãģ¯",
        "éģĭåĭķãģĹãģ¾ãģĻ"
      ],
      [
        "å½¼ãģ¯",
        "éģĭåĭķãģĹãģ¾ãģĻ"
      ],
      [
        "ar",
        "d"
      ],
      [
        "it",
        "ate"
      ],
      [
        "Ġk",
        "iá»ĩ"
      ],
      [
        "Ġau",
        "x"
      ],
      [
        "ãģĬ",
        "èĮ"
      ],
      [
        "Ġmed",
        "itate"
      ],
      [
        "Ġpre",
        "pare"
      ],
      [
        "áº£",
        "i"
      ],
      [
        "ãĤĴæ",
        "Įģãģ£ãģ¦"
      ],
      [
        "ĠéĢ",
        "±æľ"
      ],
      [
        "ãģĵãģ¨",
        "ãģĮãģªãģĳãĤĮãģ°"
      ],
      [
        "ri",
        "ve"
      ],
      [
        "Ġinv",
        "est"
      ],
      [
        "©º",
        "ãģĦãģ¦ãģĦãĤĮãģ°"
      ],
      [
        "Ġvi",
        "dÃ©"
      ],
      [
        "ĠæĻ´",
        "ãĤĮãģ"
      ],
      [
        "Ġshow",
        "er"
      ],
      [
        "å¤©",
        "æ°ĹãģªãĤī"
      ],
      [
        "å¼",
        "·"
      ],
      [
        "æĸ",
        "Ļ"
      ],
      [
        "Ġjourn",
        "al"
      ],
      [
        "int",
        "Ã©rie"
      ],
      [
        "æĽ",
        "ľæĹ¥ãģªãĤī"
      ],
      [
        "Ĥĺ",
        "ãĤĴæĮģãģ£ãģ¦"
      ],
      [
        "Ĳ½ãģ",
        "¡"
      ],
      [
        "Ġpau",
        "se"
      ],
      [
        "Ġrent",
        "re"
      ],
      [
        "ãģĬèĮ",
        "¶ãĤĴé£²ãģ¿ãģ¾ãģĻ"
      ],
      [
        "ĠéĢ±æľ",
        "«"
      ],
      [
        "ĠvidÃ©",
        "o"
      ],
      [
        "intÃ©rie",
        "ur"
      ],
      [
        "ĤĺãĤĴæĮģãģ£ãģ¦",
        "ãģĦãģįãģ¾ãģĻ"
      ],
      [
        "a",
        "ppre"
      ],
      [
        "ä",
        "½"
      ],
      [
        "Ġthe",
        "m"
      ],
      [
        "Ġfrie",
        "nd"
      ],
      [
        "Ġveu",
        "x"
      ],
      [
        "c",
        "i"
      ],
      [
        "appre",
        "nds"
      ],
      [
        "b",
        "rate"
      ],
      [
        "e",
        "le"
      ],
      [
        "i",
        "a"
      ],
      [
        "r",
        "rit"
      ],
      [
        "s",
        "se"
      ],
      [
        "u",
        "á»ĳi"
      ],
      [
        "¯",
        "ãģĳãĤĮãģ°"
      ],
      [
        "ī",
        "¯ãģĳãĤĮãģ°"
      ],
      [
        "á»",
        "¡"
      ],
      [
        "Ġc",
        "ele"
      ],
      [
        "Ġf",
        "ur"
      ],
      [
        "Ġb",
        "row"
      ],
      [
        "Ġb",
        "Ã£"
      ],
      [
        "Ġi",
        "rrit"
      ],
      [
        "å½¼å¥³ãģ¯",
        "æĺłçĶ»ãĤĴè¦ĭãģ¾ãģĻ"
      ],
      [
        "å½¼ãģ¯",
        "æĺłçĶ»ãĤĴè¦ĭãģ¾ãģĻ"
      ],
      [
        "ãģª",
        "ãģĳãĤĮãģ°"
      ],
      [
        "Ġme",
        "s"
      ],
      [
        "ĠL",
        "á»¡"
      ],
      [
        "Ġsh",
        "are"
      ],
      [
        "Ġso",
        "ci"
      ],
      [
        "Ġx",
        "áº¥u"
      ],
      [
        "ãĥ¼",
        "ãģªãĤī"
      ],
      [
        "ãĤĴè¦ĭ",
        "ãģªãģĮãĤī"
      ],
      [
        "Ġmed",
        "ia"
      ],
      [
        "ĠYou",
        "Tube"
      ],
      [
        "ĠãģĬ",
        "ä¼ĳ"
      ],
      [
        "ĠachÃ¨te",
        "nt"
      ],
      [
        "Ġcla",
        "sse"
      ],
      [
        "Ġother",
        "s"
      ],
      [
        "ãģ£ãģ¦",
        "ãģĦãģŁãĤī"
      ],
      [
        "Ġäº",
        "Īå®ļ"
      ],
      [
        "ãģĮè",
        "ī¯ãģĳãĤĮãģ°"
      ],
      [
        "Ġcele",
        "brate"
      ],
      [
        "Ġbrow",
        "se"
      ],
      [
        "Ġsoci",
        "al"
      ],
      [
        "o",
        "s"
      ],
      [
        "å½¼å¥³ãģ¯",
        "è²·ãģĦçī©ãģ«è¡Įãģįãģ¾ãģĻ"
      ],
      [
        "å½¼ãģ¯",
        "è²·ãģĦçī©ãģ«è¡Įãģįãģ¾ãģĻ"
      ],
      [
        "Ġtravaille",
        "nt"
      ],
      [
        "Ġrep",
        "os"
      ],
      [
        "Ġrencontre",
        "r"
      ],
      [
        "Ġå¿Ļ",
        "ãģĹ"
      ],
      [
        "ª",
        "¿"
      ],
      [
        "®",
        "ĭ"
      ],
      [
        "æ",
        "°´ãĤĴé£²ãģ¿ãģ¾ãģĻ"
      ],
      [
        "å½¼å¥³ãģ¯",
        "ãĤ²ãĥ¼ãĥłãĤĴãģĹãģ¾ãģĻ"
      ],
      [
        "å½¼ãģ¯",
        "ãĤ²ãĥ¼ãĥłãĤĴãģĹãģ¾ãģĻ"
      ],
      [
        "ãģ«",
        "ãģĦãģ¾ãģĻ"
      ],
      [
        "Ġbá»",
        "ĭ"
      ],
      [
        "èĸ",
        "¬"
      ],
      [
        "e",
        "nt"
      ],
      [
        "h",
        "ou"
      ],
      [
        "j",
        "oy"
      ],
      [
        "l",
        "p"
      ],
      [
        "l",
        "ose"
      ],
      [
        "l",
        "uie"
      ],
      [
        "n",
        "uie"
      ],
      [
        "s",
        "ert"
      ],
      [
        "t",
        "ions"
      ],
      [
        "u",
        "v"
      ],
      [
        "u",
        "nd"
      ],
      [
        "u",
        "á»ķi"
      ],
      [
        "w",
        "or"
      ],
      [
        "£",
        "ãģŁãĤī"
      ],
      [
        "¤",
        "ãĥ"
      ],
      [
        "¤",
        "ãĥ©"
      ],
      [
        "¤",
        "ĬãģĹãģ¾ãģĻ"
      ],
      [
        "¥",
        "ng"
      ],
      [
        "¦",
        "ãģĦãĤĮãģ°"
      ],
      [
        "©",
        "ãģı"
      ],
      [
        "¬",
        "å"
      ],
      [
        "®",
        "Ĺ"
      ],
      [
        "²",
        "n"
      ],
      [
        "¸",
        "ãģ¨"
      ],
      [
        "ç",
        "®Ĺ"
      ],
      [
        "é",
        "¤ĬãģĹãģ¾ãģĻ"
      ],
      [
        "Ġ",
        "Ã©cout"
      ],
      [
        "Ġ",
        "ãĤ¹ãĥĪ"
      ],
      [
        "Ħ",
        "Ł"
      ],
      [
        "ħ",
        "¬å"
      ],
      [
        "Ī",
        "æ¥Ń"
      ],
      [
        "Ī",
        "ç®Ĺ"
      ],
      [
        "ĭ",
        "p"
      ],
      [
        "ĭ",
        "ãĥĥãĤ¯"
      ],
      [
        "İ",
        "Īæ¥Ń"
      ],
      [
        "ı",
        "e"
      ],
      [
        "Ĵ",
        "ãģ«è¡Įãģįãģ¾ãģĻ"
      ],
      [
        "ĺ",
        "ãģŁãĤī"
      ],
      [
        "ľ",
        "ł"
      ],
      [
        "ľ",
        "Ĵãģ«è¡Įãģįãģ¾ãģĻ"
      ],
      [
        "ãģ",
        "Ľ"
      ],
      [
        "ãģ",
        "ĺãģŁãĤī"
      ],
      [
        "Ġs",
        "á»©c"
      ],
      [
        "á»",
        "ĭp"
      ],
      [
        "ãĤ",
        "ªãĥķãĤ£ãĤ¹"
      ],
      [
        "Ġc",
        "re"
      ],
      [
        "Ġc",
        "ours"
      ],
      [
        "Ġc",
        "lose"
      ],
      [
        "Ġl",
        "ook"
      ],
      [
        "Ġf",
        "Ã©"
      ],
      [
        "Ġf",
        "un"
      ],
      [
        "Ġb",
        "on"
      ],
      [
        "ãģ¾ãģ",
        "£ãģŁãĤī"
      ],
      [
        "Ġw",
        "ai"
      ],
      [
        "Ġhe",
        "lp"
      ],
      [
        "Ġe",
        "nd"
      ],
      [
        "Ġe",
        "nt"
      ],
      [
        "le",
        "ss"
      ],
      [
        "er",
        "me"
      ],
      [
        "Ġp",
        "ours"
      ],
      [
        "Ġv",
        "áº»"
      ],
      [
        "Ġv",
        "ent"
      ],
      [
        "ĠS",
        "Ã¡"
      ],
      [
        "ĠS",
        "hou"
      ],
      [
        "ĠS",
        "und"
      ],
      [
        "ãĥ",
        "£"
      ],
      [
        "ãĥ",
        "ĭãĥĥãĤ¯"
      ],
      [
        "ãģĦ",
        "ãģ¦ãģĦãĤĭæĻĤ"
      ],
      [
        "nt",
        "il"
      ],
      [
        "å½¼å¥³ãģ¯",
        "æľ¬ãĤĴèªŃãģ¿ãģ¾ãģĻ"
      ],
      [
        "å½¼å¥³ãģ¯",
        "ãĥªãĥ©ãĥĥãĤ¯ãĤ¹ãģĹãģ¾ãģĻ"
      ],
      [
        "å½¼ãģ¯",
        "æľ¬ãĤĴèªŃãģ¿ãģ¾ãģĻ"
      ],
      [
        "å½¼ãģ¯",
        "ãĥªãĥ©ãĥĥãĤ¯ãĤ¹ãģĹãģ¾ãģĻ"
      ],
      [
        "oo",
        "m"
      ],
      [
        "Ġit",
        "em"
      ],
      [
        "Ġu",
        "ntil"
      ],
      [
        "Ġng",
        "ay"
      ],
      [
        "ãĤĮãģ",
        "¦ãģĦãĤĮãģ°"
      ],
      [
        "Ġæ",
        "İĪæ¥Ń"
      ],
      [
        "Ġma",
        "uv"
      ],
      [
        "Ġr",
        "á»"
      ],
      [
        "Ġr",
        "ien"
      ],
      [
        "Ġr",
        "oom"
      ],
      [
        "Ġhome",
        "wor"
      ],
      [
        "áº¡",
        "y"
      ],
      [
        "æĹ",
        "©ãģı"
      ],
      [
        "Ġrest",
        "less"
      ],
      [
        "há»",
        "ıe"
      ],
      [
        "ãģ§",
        "éģĭåĭķãģĹãģ¾ãģĻ"
      ],
      [
        "en",
        "nuie"
      ],
      [
        "ãģı",
        "ãģŁ"
      ],
      [
        "ain",
        "ment"
      ],
      [
        "Ġk",
        "há»ıe"
      ],
      [
        "Ġé",
        "Ł³æ¥½ãĤĴèģ´"
      ],
      [
        "Ġbá»",
        "¥ng"
      ],
      [
        "ac",
        "tions"
      ],
      [
        "Ġso",
        "ir"
      ],
      [
        "Ġch",
        "at"
      ],
      [
        "Ġch",
        "áº¡y"
      ],
      [
        "Ġdes",
        "k"
      ],
      [
        "Ġdes",
        "sert"
      ],
      [
        "Ġç",
        "ľł"
      ],
      [
        "ä¼ĳ",
        "é¤ĬãģĹãģ¾ãģĻ"
      ],
      [
        "Ġrain",
        "ing"
      ],
      [
        "cu",
        "re"
      ],
      [
        "ãĤ¯",
        "ãĥĭãĥĥãĤ¯"
      ],
      [
        "Ġal",
        "ong"
      ],
      [
        "Ġcal",
        "m"
      ],
      [
        "Ġen",
        "joy"
      ],
      [
        "¤ĸ",
        "ãģ§éģĭåĭķãģĹãģ¾ãģĻ"
      ],
      [
        "ĠB",
        "uá»ķi"
      ],
      [
        "Ġsn",
        "ows"
      ],
      [
        "Ġweeke",
        "nds"
      ],
      [
        "ãĥ¬",
        "ãĤ¹"
      ],
      [
        "ãĤĴæ",
        "ĦŁ"
      ],
      [
        "Ġå¤",
        "ķ"
      ],
      [
        "Ġturn",
        "s"
      ],
      [
        "Ġè",
        "²"
      ],
      [
        "Ġè",
        "ħ¹"
      ],
      [
        "Ġwind",
        "ows"
      ],
      [
        "çĹħéĻ¢",
        "ãģ«è¡Įãģįãģ¾ãģĻ"
      ],
      [
        "Ġláº¡",
        "i"
      ],
      [
        "Ġav",
        "oid"
      ],
      [
        "Ġca",
        "se"
      ],
      [
        "Ġstorm",
        "s"
      ],
      [
        "Ġstorm",
        "ing"
      ],
      [
        "ãģ¦ãģĦãĤĭ",
        "æĻĤãģ¯"
      ],
      [
        "Ãª",
        "n"
      ],
      [
        "çĿĢ",
        "ãģĦãģŁãĤī"
      ],
      [
        "Ġpar",
        "ap"
      ],
      [
        "ãģį",
        "ãģªãģĮãĤī"
      ],
      [
        "ĠprÃ©v",
        "ois"
      ],
      [
        "ri",
        "Ã©"
      ],
      [
        "ĠæĻĤéĸĵ",
        "ãģĮãģĤãĤĮãģ°"
      ],
      [
        "ĠæĻĤéĸĵ",
        "ãģĮãģªãģĳãĤĮãģ°"
      ],
      [
        "tr",
        "actions"
      ],
      [
        "Ġstress",
        "Ã©"
      ],
      [
        "æĺ¼",
        "å¯Ŀ"
      ],
      [
        "æĺ¼",
        "é£ŁãĤĴæĬľãģįãģ¾ãģĻ"
      ],
      [
        "ãģĪ",
        "ãģŁãĤī"
      ],
      [
        "ĠrÃ©",
        "t"
      ],
      [
        "Ġhá»į",
        "p"
      ],
      [
        "ãģĮçµĤãĤı",
        "ãĤĮãģ°"
      ],
      [
        "ĠæĹ©",
        "ãģı"
      ],
      [
        "æļ",
        "ĩ"
      ],
      [
        "ĠcÃ",
        "²n"
      ],
      [
        "ä¸Ģç·Ĵ",
        "ãģªãĤī"
      ],
      [
        "Ġcou",
        "nt"
      ],
      [
        "Ġvi",
        "Ãªn"
      ],
      [
        "Ġcomfort",
        "able"
      ],
      [
        "Ġäº",
        "Īç®Ĺ"
      ],
      [
        "ãģĮãģĦ",
        "ãĤĮãģ°"
      ],
      [
        "ert",
        "ainment"
      ],
      [
        "æ¥Ń",
        "ãģĹãģ¾ãģĻ"
      ],
      [
        "èµ",
        "·ãģį"
      ],
      [
        "Ġfatigu",
        "Ã©"
      ],
      [
        "Ġä¸Ģ",
        "äºº"
      ],
      [
        "Ġdis",
        "tractions"
      ],
      [
        "Ġæļĩ",
        "ãģªãĤī"
      ],
      [
        "Ġse",
        "cure"
      ],
      [
        "è¾¼",
        "ãĤĵãģłãĤī"
      ],
      [
        "Ġpay",
        "day"
      ],
      [
        "ãĥĶ",
        "ãĤ¯ãĥĭãĥĥãĤ¯"
      ],
      [
        "ĠæĢ",
        "Ĵ"
      ],
      [
        "¯ĿåĿ",
        "ĬãģĹãģ¾ãģĻ"
      ],
      [
        "Ġä½Ļè£ķ",
        "ãģĮãģĤãĤĮãģ°"
      ],
      [
        "ĠæĤ²",
        "ãģĹ"
      ],
      [
        "®ĭ",
        "æ¥ŃãģĹãģ¾ãģĻ"
      ],
      [
        "èĸ¬",
        "ãĤĴé£²ãģ¿ãģ¾ãģĻ"
      ],
      [
        "ĠÃ©cout",
        "ant"
      ],
      [
        "ĠãĤ¹ãĥĪ",
        "ãĥ¬ãĤ¹"
      ],
      [
        "ħ¬å",
        "ľĴãģ«è¡Įãģįãģ¾ãģĻ"
      ],
      [
        "ãĤªãĥķãĤ£ãĤ¹",
        "ãģ«ãģĦãģ¾ãģĻ"
      ],
      [
        "Ġlook",
        "ing"
      ],
      [
        "ĠfÃ©",
        "riÃ©"
      ],
      [
        "Ġwai",
        "t"
      ],
      [
        "Ġent",
        "ertainment"
      ],
      [
        "ĠSÃ¡",
        "ng"
      ],
      [
        "ĠShou",
        "ld"
      ],
      [
        "ĠSund",
        "ay"
      ],
      [
        "Ġitem",
        "s"
      ],
      [
        "Ġmauv",
        "ais"
      ],
      [
        "Ġhomewor",
        "k"
      ],
      [
        "æĹ©ãģı",
        "å¯Ŀãģ¾ãģĻ"
      ],
      [
        "ãĤĴæĦŁ",
        "ãģĺãģŁãĤī"
      ],
      [
        "Ġparap",
        "luie"
      ],
      [
        "æĺ¼å¯Ŀ",
        "ãģĹãģ¾ãģĻ"
      ],
      [
        "ãĥĶãĤ¯ãĥĭãĥĥãĤ¯",
        "ãģĹãģ¾ãģĻ"
      ],
      [
        "é£Łãģ¹",
        "çī©"
      ],
      [
        "Ġreste",
        "nt"
      ],
      [
        "å®¶ãģ«",
        "ãģĦãĤĭ"
      ],
      [
        "av",
        "ing"
      ],
      [
        "Ġng",
        "Ãły"
      ],
      [
        "Ġil",
        "l"
      ],
      [
        "Ġmang",
        "Ã©"
      ],
      [
        "F",
        "ir"
      ],
      [
        "N",
        "etflix"
      ],
      [
        "a",
        "mp"
      ],
      [
        "a",
        "wn"
      ],
      [
        "b",
        "roke"
      ],
      [
        "c",
        "hÃ"
      ],
      [
        "d",
        "s"
      ],
      [
        "e",
        "ver"
      ],
      [
        "e",
        "ll"
      ],
      [
        "e",
        "ck"
      ],
      [
        "f",
        "t"
      ],
      [
        "h",
        "au"
      ],
      [
        "i",
        "lle"
      ],
      [
        "i",
        "ve"
      ],
      [
        "l",
        "u"
      ],
      [
        "l",
        "in"
      ],
      [
        "l",
        "med"
      ],
      [
        "n",
        "ique"
      ],
      [
        "o",
        "in"
      ],
      [
        "p",
        "t"
      ],
      [
        "p",
        "an"
      ],
      [
        "p",
        "ressed"
      ],
      [
        "r",
        "ied"
      ],
      [
        "s",
        "le"
      ],
      [
        "s",
        "on"
      ],
      [
        "s",
        "it"
      ],
      [
        "t",
        "y"
      ],
      [
        "t",
        "broke"
      ],
      [
        "v",
        "ing"
      ],
      [
        "v",
        "Ã©"
      ],
      [
        "w",
        "he"
      ],
      [
        "w",
        "ell"
      ],
      [
        "¢",
        "ãĤ³"
      ],
      [
        "¥",
        "ãģİ"
      ],
      [
        "¨",
        "ãĤ"
      ],
      [
        "©",
        "nh"
      ],
      [
        "©",
        "ãģĭ"
      ],
      [
        "«",
        "ng"
      ],
      [
        "°",
        "ãĤĬãģ¾ãģĻ"
      ],
      [
        "²",
        "a"
      ],
      [
        "³",
        "³"
      ],
      [
        "¸",
        "©ãģĭ"
      ],
      [
        "¿",
        "ãĤ¯"
      ],
      [
        "¿",
        "ãĤĴãģ¤ãģĳãģ¾ãģĻ"
      ],
      [
        "Ä",
        "©nh"
      ],
      [
        "å",
        "¤ĸåĩºãģĹãģ¾ãģĻ"
      ],
      [
        "æ",
        "Ī"
      ],
      [
        "ç",
        "¥Ŀ"
      ],
      [
        "Ġ",
        "hÃ"
      ],
      [
        "Ġ",
        "Ã©"
      ],
      [
        "Ġ",
        "ke"
      ],
      [
        "Ġ",
        "one"
      ],
      [
        "Ġ",
        "Fir"
      ],
      [
        "Ģ",
        "¥ãģİ"
      ],
      [
        "ģ",
        "u"
      ],
      [
        "ħ",
        "±æľ"
      ],
      [
        "ĩ",
        "ä»"
      ],
      [
        "ī",
        "ãģĹãģ¾ãģĻ"
      ],
      [
        "ī",
        "å¼·"
      ],
      [
        "Ĭ",
        "çĿĢ"
      ],
      [
        "Ĳ",
        "ang"
      ],
      [
        "ķ",
        "ª"
      ],
      [
        "ķ",
        "é£ŁãĤĴé£Łãģ¹ãģ¾ãģĻ"
      ],
      [
        "ĸ",
        "æĪ"
      ],
      [
        "Ĺ",
        "ãĤĬãģ¾ãģĻ"
      ],
      [
        "ĺ",
        "ãģĳãģ¾ãģĻ"
      ],
      [
        "Ł",
        "i"
      ],
      [
        "Ġt",
        "ied"
      ],
      [
        "Ġt",
        "Ä©nh"
      ],
      [
        "Ġs",
        "hi"
      ],
      [
        "Ġs",
        "av"
      ],
      [
        "Ġs",
        "ad"
      ],
      [
        "Ġs",
        "Æ°á»"
      ],
      [
        "Ġs",
        "áº»"
      ],
      [
        "á»",
        "ģn"
      ],
      [
        "ãĤ",
        "¨ãĤ"
      ],
      [
        "ãĤ",
        "¿ãĤ¯"
      ],
      [
        "Ġm",
        "Ã¡"
      ],
      [
        "Ġm",
        "áº·"
      ],
      [
        "Ġm",
        "áº¡ng"
      ],
      [
        "Ġa",
        "g"
      ],
      [
        "Ġc",
        "at"
      ],
      [
        "Ġc",
        "áº§n"
      ],
      [
        "Ġd",
        "or"
      ],
      [
        "Ġd",
        "á»į"
      ],
      [
        "Ġd",
        "áº¹p"
      ],
      [
        "Ġd",
        "awn"
      ],
      [
        "Ġl",
        "one"
      ],
      [
        "Ġl",
        "Æ°á»Ľ"
      ],
      [
        "Ġf",
        "al"
      ],
      [
        "Ġf",
        "reak"
      ],
      [
        "Ġf",
        "ever"
      ],
      [
        "Ġg",
        "row"
      ],
      [
        "Ġg",
        "reat"
      ],
      [
        "Ġb",
        "y"
      ],
      [
        "Ġb",
        "Æ¡i"
      ],
      [
        "Ġb",
        "Ã¬nh"
      ],
      [
        "Ġb",
        "es"
      ],
      [
        "Ġb",
        "lu"
      ],
      [
        "Ġw",
        "ip"
      ],
      [
        "Ġh",
        "igh"
      ],
      [
        "Ġh",
        "ang"
      ],
      [
        "Ġh",
        "appy"
      ],
      [
        "Ġhe",
        "ar"
      ],
      [
        "Ġáº¥",
        "m"
      ],
      [
        "Ġe",
        "mp"
      ],
      [
        "ĠÄ",
        "Ĳang"
      ],
      [
        "nh",
        "appy"
      ],
      [
        "er",
        "ful"
      ],
      [
        "Ġp",
        "ai"
      ],
      [
        "Ġp",
        "ique"
      ],
      [
        "Ġp",
        "ressed"
      ],
      [
        "Ġp",
        "eck"
      ],
      [
        "Įãģ",
        "ªãĤī"
      ],
      [
        "ĠÄĳ",
        "iá»"
      ],
      [
        "st",
        "ed"
      ],
      [
        "ãģĦ",
        "ãģĹãģ¾ãģĻ"
      ],
      [
        "ãģĦ",
        "é£²ãģ¿çī©"
      ],
      [
        "Ġst",
        "ar"
      ],
      [
        "Ġst",
        "om"
      ],
      [
        "Ġst",
        "ri"
      ],
      [
        "Ġde",
        "ad"
      ],
      [
        "Ġde",
        "pressed"
      ],
      [
        "ãĤĴ",
        "çĿĢ"
      ],
      [
        "ie",
        "ux"
      ],
      [
        "it",
        "s"
      ],
      [
        "Ġu",
        "nhappy"
      ],
      [
        "ãģ«",
        "ä¹"
      ],
      [
        "Ġle",
        "aving"
      ],
      [
        "Ġwor",
        "n"
      ],
      [
        "Ġwor",
        "ried"
      ],
      [
        "Ġo",
        "wn"
      ],
      [
        "Ġbu",
        "il"
      ],
      [
        "áº¡",
        "nh"
      ],
      [
        "ke",
        "s"
      ],
      [
        "Ġfa",
        "mis"
      ],
      [
        "Ġhave",
        "n"
      ],
      [
        "å®¶",
        "æĹı"
      ],
      [
        "ain",
        "ed"
      ],
      [
        "ĠL",
        "ate"
      ],
      [
        "Ġso",
        "lo"
      ],
      [
        "un",
        "ions"
      ],
      [
        "Ġun",
        "well"
      ],
      [
        "Ġex",
        "tr"
      ],
      [
        "Ġex",
        "hau"
      ],
      [
        "ĠE",
        "arly"
      ],
      [
        "ĠE",
        "very"
      ],
      [
        "Ġmeet",
        "s"
      ],
      [
        "Ġmeet",
        "ings"
      ],
      [
        "ãĥ¼",
        "ãģ«ä¹"
      ],
      [
        "Ġdr",
        "ained"
      ],
      [
        "Ġth",
        "ing"
      ],
      [
        "Ġth",
        "Äĥ"
      ],
      [
        "Ġç",
        "ĹħéĻ¢"
      ],
      [
        "mi",
        "r"
      ],
      [
        "å½¼å¥³ãģ¯å",
        "¤ĸåĩºãģĹãģ¾ãģĻ"
      ],
      [
        "ãģ¨",
        "è©±ãģĹãģ¾ãģĻ"
      ],
      [
        "å½¼ãģ¯å",
        "¤ĸåĩºãģĹãģ¾ãģĻ"
      ],
      [
        "ä¸",
        "ĬçĿĢ"
      ],
      [
        "Ġsleep",
        "y"
      ],
      [
        "çī",
        "ĩä»"
      ],
      [
        "ãģĬ",
        "ç¥Ŀ"
      ],
      [
        "Ġmange",
        "nt"
      ],
      [
        "ıĭéģĶ",
        "ãģ¨è©±ãģĹãģ¾ãģĻ"
      ],
      [
        "You",
        "Tube"
      ],
      [
        "Ġal",
        "lows"
      ],
      [
        "ãģĮæ",
        "¸"
      ],
      [
        "Ġche",
        "erful"
      ],
      [
        "Ġfin",
        "i"
      ],
      [
        "Ġnight",
        "ti"
      ],
      [
        "Ġcom",
        "pan"
      ],
      [
        "ãĥ©",
        "ãĥ³"
      ],
      [
        "ãĥ¬",
        "ãĤ¹ãĥĪ"
      ],
      [
        "Ġsp",
        "ir"
      ],
      [
        "Ġsp",
        "are"
      ],
      [
        "Ġan",
        "xi"
      ],
      [
        "Ġar",
        "rive"
      ],
      [
        "Ġsun",
        "set"
      ],
      [
        "Ġav",
        "oir"
      ],
      [
        "ä»ķäºĭ",
        "ãģ«è¡Įãģįãģ¾ãģĻ"
      ],
      [
        "ãģŁãģĦ",
        "æ°´ãĤĴé£²ãģ¿ãģ¾ãģĻ"
      ],
      [
        "Ġhung",
        "er"
      ],
      [
        "Ġpo",
        "sit"
      ],
      [
        "ure",
        "ux"
      ],
      [
        "Ġpar",
        "c"
      ],
      [
        "Ġoccup",
        "ied"
      ],
      [
        "Ġover",
        "sle"
      ],
      [
        "Ġover",
        "whe"
      ],
      [
        "Ġthi",
        "á»ģn"
      ],
      [
        "Ġä»ķäºĭ",
        "ãĤĴ"
      ],
      [
        "æĺ¼",
        "é£ŁãĤĴé£Łãģ¹ãģ¾ãģĻ"
      ],
      [
        "Ġä¼ĳ",
        "æĹ¥ãģªãĤī"
      ],
      [
        "Ġä¼ĳ",
        "ãģ¿ãģ®æĹ¥ãģ¯"
      ],
      [
        "èħ¹",
        "ãģªãĤī"
      ],
      [
        "ĠrÃ©",
        "unions"
      ],
      [
        "Ġholiday",
        "s"
      ],
      [
        "æļ",
        "ĸæĪ"
      ],
      [
        "Ġbeau",
        "ti"
      ],
      [
        "Ġsw",
        "amp"
      ],
      [
        "ãĥ³",
        "ãĤĴãģ¤ãģĳãģ¾ãģĻ"
      ],
      [
        "æľĿ",
        "é£ŁãĤĴé£Łãģ¹ãģ¾ãģĻ"
      ],
      [
        "æľĿ",
        "é£ŁãĤĴæĬľãģįãģ¾ãģĻ"
      ],
      [
        "Ġpress",
        "ure"
      ],
      [
        "èĸ",
        "¬ãĤĴè"
      ],
      [
        "èµ",
        "°ãĤĬãģ¾ãģĻ"
      ],
      [
        "Ġten",
        "se"
      ],
      [
        "Ġfatigu",
        "ed"
      ],
      [
        "ãģİ",
        "ãģ«è¡Įãģįãģ¾ãģĻ"
      ],
      [
        "Ġchi",
        "a"
      ],
      [
        "Ġpoor",
        "ly"
      ],
      [
        "Ġé£Łãģ¹",
        "ãģŁ"
      ],
      [
        "Ġju",
        "ice"
      ],
      [
        "ĠÃ¡",
        "o"
      ],
      [
        "Ĩ·",
        "ãģŁãģĦæ°´ãĤĴé£²ãģ¿ãģ¾ãģĻ"
      ],
      [
        "ãĤ·",
        "ãĥ¼ãģ«ä¹"
      ],
      [
        "Ġmá»",
        "«ng"
      ],
      [
        "ĠdÃ®",
        "ne"
      ],
      [
        "Ġjoy",
        "ful"
      ],
      [
        "Ġnerv",
        "ous"
      ],
      [
        "Netflix",
        "ãĤĴè¦ĭãģ¾ãģĻ"
      ],
      [
        "chÃ",
        "©"
      ],
      [
        "lin",
        "es"
      ],
      [
        "tbroke",
        "n"
      ],
      [
        "¢ãĤ³",
        "ãĥ³ãĤĴãģ¤ãģĳãģ¾ãģĻ"
      ],
      [
        "³³",
        "ãģİãģ«è¡Įãģįãģ¾ãģĻ"
      ],
      [
        "¸©ãģĭ",
        "ãģĦé£²ãģ¿çī©"
      ],
      [
        "ĠhÃ",
        "²a"
      ],
      [
        "Ġke",
        "m"
      ],
      [
        "ĠFir",
        "st"
      ],
      [
        "Ģ¥ãģİ",
        "ãģ¾ãģĻ"
      ],
      [
        "ħ±æľ",
        "īãģĹãģ¾ãģĻ"
      ],
      [
        "Ġshi",
        "ft"
      ],
      [
        "Ġsav",
        "ings"
      ],
      [
        "ĠsÆ°á»",
        "Łi"
      ],
      [
        "ãĤ¨ãĤ",
        "¢ãĤ³ãĥ³ãĤĴãģ¤ãģĳãģ¾ãģĻ"
      ],
      [
        "ãĤ¿ãĤ¯",
        "ãĤ·ãĥ¼ãģ«ä¹"
      ],
      [
        "ĠmÃ¡",
        "y"
      ],
      [
[...]
